{
  "version": "1.0",
  "truncation": null,
  "padding": null,
  "added_tokens": [
    {
      "id": 0,
      "content": "<|endoftext|>",
      "single_word": false,
      "lstrip": false,
      "rstrip": false,
      "normalized": false,
      "special": true
    },
    {
      "id": 1,
      "content": "<|unk|>",
      "single_word": false,
      "lstrip": false,
      "rstrip": false,
      "normalized": false,
      "special": true
    },
    {
      "id": 2,
      "content": "<|pad|>",
      "single_word": false,
      "lstrip": false,
      "rstrip": false,
      "normalized": false,
      "special": true
    },
    {
      "id": 3,
      "content": "<|system|>",
      "single_word": false,
      "lstrip": false,
      "rstrip": false,
      "normalized": false,
      "special": true
    },
    {
      "id": 4,
      "content": "<|user|>",
      "single_word": false,
      "lstrip": false,
      "rstrip": false,
      "normalized": false,
      "special": true
    },
    {
      "id": 5,
      "content": "<|assistant|>",
      "single_word": false,
      "lstrip": false,
      "rstrip": false,
      "normalized": false,
      "special": true
    }
  ],
  "normalizer": null,
  "pre_tokenizer": {
    "type": "ByteLevel",
    "add_prefix_space": false,
    "trim_offsets": true,
    "use_regex": true
  },
  "post_processor": null,
  "decoder": {
    "type": "ByteLevel",
    "add_prefix_space": true,
    "trim_offsets": true,
    "use_regex": true
  },
  "model": {
    "type": "BPE",
    "dropout": null,
    "unk_token": "<|unk|>",
    "continuing_subword_prefix": null,
    "end_of_word_suffix": null,
    "fuse_unk": false,
    "byte_fallback": false,
    "ignore_merges": false,
    "vocab": {
      "<|endoftext|>": 0,
      "<|unk|>": 1,
      "<|pad|>": 2,
      "<|system|>": 3,
      "<|user|>": 4,
      "<|assistant|>": 5,
      "!": 6,
      "\"": 7,
      "#": 8,
      "$": 9,
      "%": 10,
      "&": 11,
      "'": 12,
      "(": 13,
      ")": 14,
      "*": 15,
      "+": 16,
      ",": 17,
      "-": 18,
      ".": 19,
      "/": 20,
      "0": 21,
      "1": 22,
      "2": 23,
      "3": 24,
      "4": 25,
      "5": 26,
      "6": 27,
      "7": 28,
      "8": 29,
      "9": 30,
      ":": 31,
      ";": 32,
      "<": 33,
      "=": 34,
      ">": 35,
      "?": 36,
      "@": 37,
      "A": 38,
      "B": 39,
      "C": 40,
      "D": 41,
      "E": 42,
      "F": 43,
      "G": 44,
      "H": 45,
      "I": 46,
      "J": 47,
      "K": 48,
      "L": 49,
      "M": 50,
      "N": 51,
      "O": 52,
      "P": 53,
      "Q": 54,
      "R": 55,
      "S": 56,
      "T": 57,
      "U": 58,
      "V": 59,
      "W": 60,
      "X": 61,
      "Y": 62,
      "Z": 63,
      "[": 64,
      "\\": 65,
      "]": 66,
      "^": 67,
      "_": 68,
      "`": 69,
      "a": 70,
      "b": 71,
      "c": 72,
      "d": 73,
      "e": 74,
      "f": 75,
      "g": 76,
      "h": 77,
      "i": 78,
      "j": 79,
      "k": 80,
      "l": 81,
      "m": 82,
      "n": 83,
      "o": 84,
      "p": 85,
      "q": 86,
      "r": 87,
      "s": 88,
      "t": 89,
      "u": 90,
      "v": 91,
      "w": 92,
      "x": 93,
      "y": 94,
      "z": 95,
      "{": 96,
      "|": 97,
      "}": 98,
      "~": 99,
      "¡": 100,
      "¢": 101,
      "£": 102,
      "¤": 103,
      "¥": 104,
      "¦": 105,
      "§": 106,
      "¨": 107,
      "©": 108,
      "ª": 109,
      "«": 110,
      "¬": 111,
      "®": 112,
      "¯": 113,
      "°": 114,
      "±": 115,
      "²": 116,
      "³": 117,
      "´": 118,
      "µ": 119,
      "¶": 120,
      "·": 121,
      "¸": 122,
      "¹": 123,
      "º": 124,
      "»": 125,
      "¼": 126,
      "½": 127,
      "¾": 128,
      "¿": 129,
      "Â": 130,
      "Ã": 131,
      "Ä": 132,
      "Å": 133,
      "Æ": 134,
      "Ç": 135,
      "È": 136,
      "É": 137,
      "Ê": 138,
      "Ë": 139,
      "Ì": 140,
      "Í": 141,
      "Î": 142,
      "Ï": 143,
      "Ð": 144,
      "Ñ": 145,
      "Ò": 146,
      "Ó": 147,
      "Ô": 148,
      "Õ": 149,
      "Ö": 150,
      "×": 151,
      "Ø": 152,
      "Ù": 153,
      "Ú": 154,
      "Û": 155,
      "Ü": 156,
      "Ý": 157,
      "Þ": 158,
      "ß": 159,
      "à": 160,
      "á": 161,
      "â": 162,
      "ã": 163,
      "ä": 164,
      "å": 165,
      "æ": 166,
      "ç": 167,
      "è": 168,
      "é": 169,
      "ê": 170,
      "ë": 171,
      "ì": 172,
      "í": 173,
      "ï": 174,
      "ð": 175,
      "Ċ": 176,
      "č": 177,
      "Ġ": 178,
      "Ģ": 179,
      "ģ": 180,
      "Ĥ": 181,
      "ĥ": 182,
      "Ħ": 183,
      "ħ": 184,
      "Ĩ": 185,
      "ĩ": 186,
      "Ī": 187,
      "ī": 188,
      "Ĭ": 189,
      "ĭ": 190,
      "Į": 191,
      "į": 192,
      "İ": 193,
      "ı": 194,
      "Ĳ": 195,
      "ĳ": 196,
      "Ĵ": 197,
      "ĵ": 198,
      "Ķ": 199,
      "ķ": 200,
      "ĸ": 201,
      "Ĺ": 202,
      "ĺ": 203,
      "Ļ": 204,
      "ļ": 205,
      "Ľ": 206,
      "ľ": 207,
      "Ŀ": 208,
      "ŀ": 209,
      "Ł": 210,
      "ł": 211,
      "Ń": 212,
      "Ġt": 213,
      "Ġa": 214,
      "he": 215,
      "in": 216,
      "re": 217,
      "Ġthe": 218,
      "on": 219,
      "er": 220,
      "čĊ": 221,
      "Ġs": 222,
      "Ġo": 223,
      "at": 224,
      "nd": 225,
      "Ġw": 226,
      "is": 227,
      "es": 228,
      "en": 229,
      "Ġc": 230,
      "or": 231,
      "it": 232,
      "an": 233,
      "ed": 234,
      "al": 235,
      "Ġb": 236,
      "Ġf": 237,
      "Ġof": 238,
      "Ġp": 239,
      "ou": 240,
      "ar": 241,
      "Ġin": 242,
      "ing": 243,
      "Ġm": 244,
      "Ġand": 245,
      "Ġto": 246,
      "ic": 247,
      "Ġd": 248,
      "ion": 249,
      "as": 250,
      "le": 251,
      "Ġh": 252,
      "ro": 253,
      "Ġth": 254,
      "ent": 255,
      "il": 256,
      "om": 257,
      "Ġn": 258,
      "st": 259,
      "el": 260,
      "Ġl": 261,
      "Ġre": 262,
      "ct": 263,
      "Ġe": 264,
      "ĠS": 265,
      "ĠT": 266,
      "ve": 267,
      "et": 268,
      "ol": 269,
      "ĠC": 270,
      "ĠA": 271,
      "Ġis": 272,
      "Ġg": 273,
      "ot": 274,
      "ĠI": 275,
      "ra": 276,
      "ut": 277,
      "Ġbe": 278,
      "im": 279,
      "us": 280,
      "ur": 281,
      "ch": 282,
      "ce": 283,
      "ow": 284,
      "id": 285,
      "ly": 286,
      "ation": 287,
      "Ġfor": 288,
      "ig": 289,
      "âĢ": 290,
      "ir": 291,
      "Ġy": 292,
      "am": 293,
      "Ġon": 294,
      "ĠM": 295,
      "ad": 296,
      "ay": 297,
      "ver": 298,
      "Ġthat": 299,
      "Ġst": 300,
      "ith": 301,
      "Ġ1": 302,
      "her": 303,
      "Ġas": 304,
      "ĠP": 305,
      "se": 306,
      "ul": 307,
      "Ġ(": 308,
      "ĠB": 309,
      "Ġyou": 310,
      "Ġwith": 311,
      "ter": 312,
      "Ġwh": 313,
      "Ġal": 314,
      "un": 315,
      "ĠH": 316,
      "Ġan": 317,
      "Ġit": 318,
      "Ġhe": 319,
      "th": 320,
      "Ġcon": 321,
      "if": 322,
      "Ġpro": 323,
      "od": 324,
      "ill": 325,
      "ers": 326,
      "ĠThe": 327,
      "ist": 328,
      "ge": 329,
      "Ġare": 330,
      "Ġwas": 331,
      "ĠW": 332,
      "and": 333,
      "ĠD": 334,
      "ri": 335,
      "ere": 336,
      "um": 337,
      "em": 338,
      "ĠR": 339,
      "Ġor": 340,
      "ĠF": 341,
      "ĠL": 342,
      "op": 343,
      "Ġ2": 344,
      "Ġby": 345,
      "est": 346,
      "ess": 347,
      "ore": 348,
      "Ġde": 349,
      "ĠG": 350,
      "rom": 351,
      "ld": 352,
      "Ġcom": 353,
      "ab": 354,
      "ac": 355,
      "ain": 356,
      "pe": 357,
      "ĠE": 358,
      "Ġat": 359,
      "ke": 360,
      "res": 361,
      "ate": 362,
      "Ġv": 363,
      "ĠN": 364,
      "ity": 365,
      "os": 366,
      "ies": 367,
      "ment": 368,
      "igh": 369,
      "Ġse": 370,
      "ant": 371,
      "Ġex": 372,
      "Ġfrom": 373,
      "iv": 374,
      "Ġha": 375,
      "Ġsu": 376,
      "all": 377,
      "qu": 378,
      "oc": 379,
      "Ġnot": 380,
      "ort": 381,
      "te": 382,
      "ud": 383,
      "ive": 384,
      "art": 385,
      "Ġsh": 386,
      "nt": 387,
      "Ġne": 388,
      "Ġch": 389,
      "Ġr": 390,
      "pp": 391,
      "00": 392,
      "Ġle": 393,
      "ĠJ": 394,
      "ure": 395,
      "ich": 396,
      "Ġhave": 397,
      "The": 398,
      "ell": 399,
      "Ġ19": 400,
      "âĢĻ": 401,
      "our": 402,
      "ĠO": 403,
      "ard": 404,
      "Ġcan": 405,
      "Ġus": 406,
      "gh": 407,
      "Ġthis": 408,
      "ight": 409,
      "ial": 410,
      "Ġpl": 411,
      "ould": 412,
      "ust": 413,
      "og": 414,
      "ag": 415,
      "ĠâĢ": 416,
      "pt": 417,
      "'s": 418,
      "ction": 419,
      "rou": 420,
      "Ġu": 421,
      "ical": 422,
      "ine": 423,
      "ost": 424,
      "ome": 425,
      "Ġhis": 426,
      "ther": 427,
      "Ġwe": 428,
      "ie": 429,
      "ĠU": 430,
      "Ġwor": 431,
      "ia": 432,
      "ast": 433,
      "ak": 434,
      "ated": 435,
      "ip": 436,
      "Ġtheir": 437,
      "Ġk": 438,
      "Ġyour": 439,
      "Ġme": 440,
      "ong": 441,
      "are": 442,
      "ff": 443,
      "Ġall": 444,
      "Ġwhich": 445,
      "Ġab": 446,
      "per": 447,
      "ous": 448,
      "ian": 449,
      "ber": 450,
      "Ġwhe": 451,
      "ect": 452,
      "ĠK": 453,
      "ĠIn": 454,
      "age": 455,
      "ear": 456,
      "out": 457,
      "Ġthey": 458,
      "ary": 459,
      "ood": 460,
      "du": 461,
      "end": 462,
      "Ġbut": 463,
      "Ġwill": 464,
      "ks": 465,
      "Ġen": 466,
      "Ġim": 467,
      "ru": 468,
      "ire": 469,
      "Ġcomp": 470,
      "ish": 471,
      "ide": 472,
      "cc": 473,
      "Ġdo": 474,
      "Ġwere": 475,
      "Ġint": 476,
      "ry": 477,
      "so": 478,
      "Ġhas": 479,
      "iz": 480,
      "ord": 481,
      "ult": 482,
      "ap": 483,
      "ans": 484,
      "av": 485,
      "Ġ20": 486,
      "Ġun": 487,
      "Ġad": 488,
      "Ġso": 489,
      "ions": 490,
      "ame": 491,
      "xt": 492,
      "ĠSt": 493,
      "cl": 494,
      "Ġ\"": 495,
      "Ġman": 496,
      "Ġdis": 497,
      "ue": 498,
      "Ġcont": 499,
      "Ġmore": 500,
      "ind": 501,
      "pl": 502,
      "ake": 503,
      "ations": 504,
      "ign": 505,
      "ĠCh": 506,
      "Ġres": 507,
      "reat": 508,
      "Ġmy": 509,
      "act": 510,
      "orm": 511,
      "ĠTh": 512,
      "ass": 513,
      "ib": 514,
      "ice": 515,
      "ence": 516,
      "ces": 517,
      "ub": 518,
      "Ġcl": 519,
      "ĠV": 520,
      "Ġalso": 521,
      "Ġone": 522,
      "ose": 523,
      "Ġother": 524,
      "vel": 525,
      "ance": 526,
      "ild": 527,
      "one": 528,
      "mer": 529,
      "ach": 530,
      "Ġte": 531,
      "Ġar": 532,
      "able": 533,
      "Ġj": 534,
      "ount": 535,
      "ater": 536,
      "ents": 537,
      "rit": 538,
      "Ġper": 539,
      "of": 540,
      "ime": 541,
      "ew": 542,
      "ase": 543,
      "ok": 544,
      "ual": 545,
      "ound": 546,
      "ace": 547,
      "ack": 548,
      "ress": 549,
      "ang": 550,
      "Ġpart": 551,
      "Ġwho": 552,
      "ep": 553,
      "Ġout": 554,
      "now": 555,
      "ory": 556,
      "Ġup": 557,
      "Ġhad": 558,
      "ove": 559,
      "ely": 560,
      "Ġsp": 561,
      "Ġher": 562,
      "ens": 563,
      "Ġthem": 564,
      "ition": 565,
      "ric": 566,
      "ors": 567,
      "Ġpre": 568,
      "fere": 569,
      "very": 570,
      "ond": 571,
      "âĢĿ": 572,
      "ree": 573,
      "vers": 574,
      "ough": 575,
      "aus": 576,
      "Ġimp": 577,
      "Ġ201": 578,
      "ĠIt": 579,
      "Ġsc": 580,
      "irst": 581,
      "Ġpe": 582,
      "Ġthere": 583,
      "ne": 584,
      "tern": 585,
      "erv": 586,
      "Ġspe": 587,
      ").": 588,
      "Ġag": 589,
      "ings": 590,
      "ile": 591,
      "Ġits": 592,
      "Ġno": 593,
      "ĠHe": 594,
      "Ġ-": 595,
      "ph": 596,
      "ng": 597,
      "ates": 598,
      "Ġmay": 599,
      "Ġcomm": 600,
      "Ġev": 601,
      "ople": 602,
      "nder": 603,
      "Ġli": 604,
      "Ġbec": 605,
      "Ġ3": 606,
      "ons": 607,
      "Ġgo": 608,
      "ĠY": 609,
      "Ġbeen": 610,
      "Ġabout": 611,
      "Ġqu": 612,
      "text": 613,
      "hed": 614,
      "wn": 615,
      "form": 616,
      "ite": 617,
      "Ġwhen": 618,
      "Ġtw": 619,
      "ath": 620,
      "Ġyear": 621,
      "oll": 622,
      "Ġstud": 623,
      "ĠUn": 624,
      "old": 625,
      "19": 626,
      "Ġsome": 627,
      "Ġrec": 628,
      "ail": 629,
      "we": 630,
      "ov": 631,
      "Ġinto": 632,
      "Ġknow": 633,
      "Ġtra": 634,
      "Ġwould": 635,
      "Ġ200": 636,
      "ĠâĢľ": 637,
      "red": 638,
      "Ġdes": 639,
      "ays": 640,
      "Ġfirst": 641,
      "les": 642,
      "Ġro": 643,
      "Ġour": 644,
      "Ġtime": 645,
      "Ġra": 646,
      "),": 647,
      "fter": 648,
      "Ġthan": 649,
      "olog": 650,
      "Ġhim": 651,
      "ational": 652,
      "ts": 653,
      "|>": 654,
      "<|": 655,
      "endof": 656,
      "endoftext": 657,
      "Ġsy": 658,
      "Ġam": 659,
      "ms": 660,
      "Ġover": 661,
      "rough": 662,
      "ĠâĢĵ": 663,
      "lic": 664,
      "ious": 665,
      "ll": 666,
      "ool": 667,
      "Ġwork": 668,
      "clud": 669,
      "In": 670,
      "Ġbl": 671,
      "Th": 672,
      "Ġsa": 673,
      "Ġapp": 674,
      "Ġwhat": 675,
      "Ġif": 676,
      "Ġbet": 677,
      "Ġsuch": 678,
      "oy": 679,
      "Ġthese": 680,
      "Ġpeople": 681,
      "ark": 682,
      "Ġind": 683,
      "Ġmost": 684,
      "Ġcons": 685,
      "ren": 686,
      "Ġhow": 687,
      "amp": 688,
      "ning": 689,
      "ck": 690,
      "Ġunder": 691,
      "ob": 692,
      "iss": 693,
      "Ġnew": 694,
      "Ġtwo": 695,
      "ĠčĊ": 696,
      "Ġacc": 697,
      "ook": 698,
      "Ġtr": 699,
      "Ġoff": 700,
      "ally": 701,
      "ced": 702,
      "oin": 703,
      "ause": 704,
      "ĠThis": 705,
      "oth": 706,
      "land": 707,
      "Ġfl": 708,
      "ife": 709,
      "Ġany": 710,
      "Ġshe": 711,
      "Ġthen": 712,
      "ities": 713,
      "Ġ18": 714,
      "ade": 715,
      "aw": 716,
      "ied": 717,
      "Ġinclud": 718,
      "Ġact": 719,
      "ific": 720,
      "lect": 721,
      "cre": 722,
      "..": 723,
      "fore": 724,
      "own": 725,
      "man": 726,
      "ise": 727,
      "als": 728,
      "ĠRe": 729,
      "Ġrep": 730,
      "ys": 731,
      "meric": 732,
      "uring": 733,
      "Ġdif": 734,
      "âĢĵ": 735,
      "Ġrel": 736,
      "ased": 737,
      "Ġonly": 738,
      "Ġuse": 739,
      "ited": 740,
      "ink": 741,
      "ted": 742,
      "Ġfe": 743,
      "âĪ": 744,
      "Ġwhere": 745,
      "rib": 746,
      "Ġwell": 747,
      "ful": 748,
      "Ġgen": 749,
      "hen": 750,
      "ject": 751,
      "Ġplay": 752,
      "Ġprodu": 753,
      "ĠAr": 754,
      "row": 755,
      "ics": 756,
      "alth": 757,
      "Wh": 758,
      "Ġ4": 759,
      "velop": 760,
      "elf": 761,
      "ular": 762,
      "ick": 763,
      "oss": 764,
      "20": 765,
      "Ġass": 766,
      "round": 767,
      "eth": 768,
      "Ġmany": 769,
      "Ġlike": 770,
      "âĪ£": 771,
      "ower": 772,
      "cess": 773,
      "orn": 774,
      "And": 775,
      "arch": 776,
      "ating": 777,
      "Ġreg": 778,
      "ss": 779,
      "Ġthrough": 780,
      "ĠSe": 781,
      "hip": 782,
      "stem": 783,
      "Ġshould": 784,
      "ient": 785,
      "chool": 786,
      "ivers": 787,
      "uch": 788,
      "ward": 789,
      "Ġafter": 790,
      "Ġprov": 791,
      "iet": 792,
      "ffect": 793,
      "ble": 794,
      "hes": 795,
      "ten": 796,
      "gan": 797,
      "ments": 798,
      "Ġused": 799,
      "Ġneed": 800,
      "Ġph": 801,
      "urn": 802,
      "Ġhel": 803,
      "Ġpres": 804,
      "Ġcol": 805,
      "feren": 806,
      "Ġchild": 807,
      "Ġmake": 808,
      "Ġspec": 809,
      "Ġ5": 810,
      "ĠCom": 811,
      "ative": 812,
      "ram": 813,
      "cy": 814,
      "ont": 815,
      "Ġrem": 816,
      "Ġco": 817,
      "Ġob": 818,
      "Ġem": 819,
      "Ġbu": 820,
      "Ġhelp": 821,
      "ures": 822,
      "ran": 823,
      "ft": 824,
      "Ġsub": 825,
      "ĠDe": 826,
      "ars": 827,
      "Ġpr": 828,
      "ert": 829,
      "ily": 830,
      "ered": 831,
      "Ġac": 832,
      "au": 833,
      "ween": 834,
      "ĠAmeric": 835,
      "Ġdevelop": 836,
      "its": 837,
      "Ġyears": 838,
      "io": 839,
      "Ġsupp": 840,
      "ĠAl": 841,
      "Ġnow": 842,
      "Ġsee": 843,
      "ting": 844,
      "ins": 845,
      "ants": 846,
      "Ġcould": 847,
      "ather": 848,
      "Ġadd": 849,
      "ists": 850,
      "Ġagain": 851,
      "ident": 852,
      "Ġatt": 853,
      "Ġbetween": 854,
      "Ġsur": 855,
      "Ġinv": 856,
      "uc": 857,
      "ince": 858,
      "ible": 859,
      "Ġsm": 860,
      "other": 861,
      "ility": 862,
      "ract": 863,
      "tle": 864,
      "Ġgreat": 865,
      "Ġfound": 866,
      "ines": 867,
      "Ġinf": 868,
      "ution": 869,
      "Ġear": 870,
      "Ġtrans": 871,
      "Ġhigh": 872,
      "the": 873,
      "Ġsystem": 874,
      "cent": 875,
      "ave": 876,
      "ĠPro": 877,
      "ollow": 878,
      "Ġmade": 879,
      "eld": 880,
      "ness": 881,
      "Ġlong": 882,
      "Ġgood": 883,
      "ict": 884,
      "Ġbeing": 885,
      "pect": 886,
      "ĠIs": 887,
      "ty": 888,
      "ĠNew": 889,
      "Ġcall": 890,
      "Ġpol": 891,
      "ever": 892,
      "ork": 893,
      "Ġpers": 894,
      "Ġform": 895,
      "ished": 896,
      "Ġpub": 897,
      "Ġexp": 898,
      "Ġnum": 899,
      "ale": 900,
      "Ġart": 901,
      "Ġvery": 902,
      "ience": 903,
      "Ġend": 904,
      "ature": 905,
      "ock": 906,
      "Ġserv": 907,
      "arg": 908,
      "Ġown": 909,
      "up": 910,
      "Ġinst": 911,
      "ange": 912,
      "Ġ199": 913,
      "ural": 914,
      "Ġed": 915,
      "ctions": 916,
      "Ġinter": 917,
      "Ġwater": 918,
      "iversity": 919,
      "Ġcent": 920,
      "ury": 921,
      "air": 922,
      "ĠLe": 923,
      "ug": 924,
      "Re": 925,
      "ved": 926,
      "ĠWh": 927,
      "ues": 928,
      "li": 929,
      "Ġset": 930,
      "Ġke": 931,
      "Ġgra": 932,
      "Ġmod": 933,
      "ology": 934,
      "Ġent": 935,
      "ason": 936,
      "Ġbel": 937,
      "oh": 938,
      "Ġthose": 939,
      "Ġlife": 940,
      "Ġmuch": 941,
      "vern": 942,
      "erm": 943,
      "cept": 944,
      "Ġbefore": 945,
      "iew": 946,
      "led": 947,
      "Ġloc": 948,
      "Ġsec": 949,
      "Ġmed": 950,
      "Ġ6": 951,
      "Ġdist": 952,
      "ives": 953,
      "Ġcount": 954,
      "cer": 955,
      "Ġsign": 956,
      "Ġway": 957,
      "roup": 958,
      "Ġfollow": 959,
      "ism": 960,
      "arm": 961,
      "Ġmust": 962,
      "chn": 963,
      "eral": 964,
      "aking": 965,
      "ix": 966,
      "Ġget": 967,
      "outh": 968,
      "Ġworld": 969,
      "way": 970,
      "inal": 971,
      "Ġboth": 972,
      "Ġdef": 973,
      "vent": 974,
      "ĠAs": 975,
      "Ġshall": 976,
      "Ġduring": 977,
      "ata": 978,
      "Ġsaid": 979,
      "Ġcar": 980,
      "Ġdisc": 981,
      "Ġhealth": 982,
      "ven": 983,
      "ĠAn": 984,
      "ah": 985,
      "ral": 986,
      "any": 987,
      "und": 988,
      "oun": 989,
      "Ġwrit": 990,
      "Ġ--": 991,
      "ouse": 992,
      "ages": 993,
      "Ġjust": 994,
      "ually": 995,
      "de": 996,
      "ferent": 997,
      "Ġrese": 998,
      "ters": 999,
      "cial": 1000,
      "oot": 1001,
      "Ġdid": 1002,
      "Ġmem": 1003,
      "ĠInd": 1004,
      "aj": 1005,
      "Ġfam": 1006,
      "Ġbecause": 1007,
      "Ġsame": 1008,
      "ision": 1009,
      "to": 1010,
      "ene": 1011,
      "Ġvar": 1012,
      "imes": 1013,
      "Ġimport": 1014,
      "lish": 1015,
      "ield": 1016,
      "Ġret": 1017,
      "der": 1018,
      "Ġlead": 1019,
      "Ġhum": 1020,
      "Ġsim": 1021,
      "gy": 1022,
      "omen": 1023,
      "Ġty": 1024,
      "Ġap": 1025,
      "Ġevery": 1026,
      "Ġeven": 1027,
      "Ġmon": 1028,
      "Ġser": 1029,
      "Ġthree": 1030,
      "Ġeffect": 1031,
      "ĠSc": 1032,
      "ron": 1033,
      "Ġdoes": 1034,
      "Ġest": 1035,
      "Ġtake": 1036,
      "Ġshow": 1037,
      "Ġschool": 1038,
      "Ġprog": 1039,
      "ring": 1040,
      "Ġdifferent": 1041,
      "uth": 1042,
      "Ġdet": 1043,
      "Ġexper": 1044,
      "Ġeach": 1045,
      "com": 1046,
      "ody": 1047,
      "Ġback": 1048,
      "Ġday": 1049,
      "Ġcre": 1050,
      "ands": 1051,
      "Ġlear": 1052,
      "Ġmin": 1053,
      "Ġthough": 1054,
      "Ġincre": 1055,
      "ull": 1056,
      "con": 1057,
      "formation": 1058,
      "ĠFor": 1059,
      "rop": 1060,
      "ically": 1061,
      "ĠAmerican": 1062,
      "Ġfind": 1063,
      "Ġresult": 1064,
      "ized": 1065,
      "ton": 1066,
      "||": 1067,
      "ĠSp": 1068,
      "ices": 1069,
      "els": 1070,
      "Ġpartic": 1071,
      "ash": 1072,
      "orth": 1073,
      "ĠWe": 1074,
      "Ġ7": 1075,
      "ferences": 1076,
      "ĠEng": 1077,
      "irect": 1078,
      "ner": 1079,
      "Ġdec": 1080,
      "ĠSh": 1081,
      "Ġwhile": 1082,
      "ves": 1083,
      "az": 1084,
      "Ġcommun": 1085,
      "Ġcare": 1086,
      "Ġrequ": 1087,
      "ĠWill": 1088,
      "000": 1089,
      "Ġright": 1090,
      "Ġpat": 1091,
      "Ġread": 1092,
      "Ġsoc": 1093,
      "ving": 1094,
      "Ġcur": 1095,
      "ute": 1096,
      "ruct": 1097,
      "Ġpop": 1098,
      "arge": 1099,
      "Ġmain": 1100,
      "ĠUniversity": 1101,
      "Ġlit": 1102,
      "Ġfil": 1103,
      "ases": 1104,
      "Ġgl": 1105,
      "ier": 1106,
      "Ġgroup": 1107,
      "Ġ10": 1108,
      "ĠThey": 1109,
      "read": 1110,
      "istory": 1111,
      "get": 1112,
      "Ġref": 1113,
      "ames": 1114,
      "Ġ&": 1115,
      "Ġhere": 1116,
      "Ġcomple": 1117,
      "Ġchildren": 1118,
      "Ġsl": 1119,
      "ĠBe": 1120,
      "ax": 1121,
      "Ġperson": 1122,
      "uss": 1123,
      "ex": 1124,
      "Ġ8": 1125,
      "Ġins": 1126,
      "It": 1127,
      "Ġbo": 1128,
      "Ġprocess": 1129,
      "Ġop": 1130,
      "akes": 1131,
      "Ġmus": 1132,
      "ional": 1133,
      "iron": 1134,
      "Ġgu": 1135,
      "Ġsmall": 1136,
      "Ġfact": 1137,
      "ĠCl": 1138,
      "ĠHow": 1139,
      "Ġsk": 1140,
      "Ġdesign": 1141,
      "Ġext": 1142,
      "ides": 1143,
      "Ġtechn": 1144,
      "ĠAnd": 1145,
      "hem": 1146,
      "To": 1147,
      "Ġtoo": 1148,
      "Ġdown": 1149,
      "ina": 1150,
      "gg": 1151,
      "ĠCon": 1152,
      "ets": 1153,
      "ball": 1154,
      "Ġknown": 1155,
      "Ġnumber": 1156,
      "ĠUnited": 1157,
      "Ġpo": 1158,
      "iving": 1159,
      "ains": 1160,
      "ired": 1161,
      "Ġ198": 1162,
      "Ġplace": 1163,
      "ize": 1164,
      "ĠZ": 1165,
      "Ġlevel": 1166,
      "Ġstr": 1167,
      "Ġprote": 1168,
      "Ġmat": 1169,
      "Ġmen": 1170,
      "Ġagainst": 1171,
      "ple": 1172,
      "Ġav": 1173,
      "pend": 1174,
      "This": 1175,
      "Ġimportant": 1176,
      "18": 1177,
      "raph": 1178,
      "ien": 1179,
      "Ġpower": 1180,
      "oint": 1181,
      "ality": 1182,
      "Ġorgan": 1183,
      "ds": 1184,
      "ĠCol": 1185,
      "une": 1186,
      "Ġstudents": 1187,
      "Ġconf": 1188,
      "Ġ9": 1189,
      "eng": 1190,
      "ared": 1191,
      "Ġ'": 1192,
      "ross": 1193,
      ".,": 1194,
      "ĠPh": 1195,
      "Ġthink": 1196,
      "Ġstudy": 1197,
      "Ġocc": 1198,
      "rain": 1199,
      "lished": 1200,
      "ample": 1201,
      "ris": 1202,
      "bers": 1203,
      "ĠQ": 1204,
      "Ġval": 1205,
      "Ġstill": 1206,
      "Ġdi": 1207,
      "orts": 1208,
      "uro": 1209,
      "Ġcalled": 1210,
      "Ġgovern": 1211,
      "Ġstart": 1212,
      "10": 1213,
      "Ġposs": 1214,
      "Ġcome": 1215,
      "ital": 1216,
      "Ġlet": 1217,
      "Ġoften": 1218,
      "iness": 1219,
      "Ġbuild": 1220,
      "Ġincluding": 1221,
      "Ġinformation": 1222,
      "ĠPl": 1223,
      "oci": 1224,
      "ium": 1225,
      "ians": 1226,
      "ulation": 1227,
      "ivid": 1228,
      "Ġgrow": 1229,
      ".\"": 1230,
      "be": 1231,
      "rist": 1232,
      "stand": 1233,
      "ank": 1234,
      "ĠAd": 1235,
      "Ġsay": 1236,
      "iety": 1237,
      ".âĢĿ": 1238,
      "Ġappe": 1239,
      "ived": 1240,
      "ĠBut": 1241,
      "Ġpass": 1242,
      "Ġbro": 1243,
      "apt": 1244,
      "Ġcontin": 1245,
      "Ġsecond": 1246,
      "rent": 1247,
      "dition": 1248,
      "Ġresp": 1249,
      "Ġdata": 1250,
      "Ġless": 1251,
      "Ġexpl": 1252,
      "Ġfood": 1253,
      "ĠComm": 1254,
      "Ġconst": 1255,
      "tend": 1256,
      "Ġclass": 1257,
      "Ġsol": 1258,
      "What": 1259,
      "But": 1260,
      "Ġcour": 1261,
      "ior": 1262,
      "osed": 1263,
      "Ġusing": 1264,
      "Ġpur": 1265,
      "Ġpresent": 1266,
      "Ġlook": 1267,
      "rol": 1268,
      "Ġactiv": 1269,
      "Ġdeath": 1270,
      "Ġproble": 1271,
      "orld": 1272,
      "Ġpublic": 1273,
      "Ġtest": 1274,
      "Ġprof": 1275,
      "ĠIf": 1276,
      "Ġconsid": 1277,
      "ined": 1278,
      "ĠStates": 1279,
      "viron": 1280,
      "Ġelect": 1281,
      "ann": 1282,
      "Ġstate": 1283,
      "Ġbody": 1284,
      "ik": 1285,
      "Ġbest": 1286,
      "itions": 1287,
      "Ġmight": 1288,
      "Ġrest": 1289,
      "Ġmet": 1290,
      "Ġdirect": 1291,
      "Ġadv": 1292,
      "ential": 1293,
      "Ġaround": 1294,
      "ately": 1295,
      "mber": 1296,
      "day": 1297,
      "Ġupon": 1298,
      "ohn": 1299,
      "ries": 1300,
      "References": 1301,
      "Ġwithout": 1302,
      "...": 1303,
      "ained": 1304,
      "Ġ197": 1305,
      "Ġcommon": 1306,
      "ording": 1307,
      "Ġ17": 1308,
      "alk": 1309,
      "Ġbir": 1310,
      "Ġhand": 1311,
      "ery": 1312,
      "Ġwithin": 1313,
      "Ġfour": 1314,
      "Ġresearch": 1315,
      "Ġteam": 1316,
      "Ġthy": 1317,
      "Ġdep": 1318,
      "Ã©": 1319,
      "ĠYou": 1320,
      "Ġlast": 1321,
      "ĠAt": 1322,
      "Ġele": 1323,
      "here": 1324,
      "Ġsing": 1325,
      "Ġfun": 1326,
      "ffic": 1327,
      "Ġcle": 1328,
      "Ġsupport": 1329,
      "ths": 1330,
      "hers": 1331,
      "Ġtreat": 1332,
      "Ġcor": 1333,
      "ĠOn": 1334,
      "ray": 1335,
      "riend": 1336,
      "ats": 1337,
      "200": 1338,
      "Ġsince": 1339,
      "angu": 1340,
      "Ġhome": 1341,
      "bs": 1342,
      "ograph": 1343,
      "Ġold": 1344,
      "ee": 1345,
      "veral": 1346,
      "Ġbre": 1347,
      "Ġallow": 1348,
      "acter": 1349,
      "Ġanother": 1350,
      "Ġrele": 1351,
      "Ġname": 1352,
      "less": 1353,
      "Ġself": 1354,
      "Ġthou": 1355,
      "Ġmar": 1356,
      "Ġbeh": 1357,
      "gen": 1358,
      "ering": 1359,
      "ern": 1360,
      "ense": 1361,
      "Ġgener": 1362,
      "Ġ15": 1363,
      "Ġair": 1364,
      "Ġchar": 1365,
      "gin": 1366,
      "ĠKing": 1367,
      "Ġeduc": 1368,
      "As": 1369,
      "Ġinc": 1370,
      "Ġdem": 1371,
      "rid": 1372,
      "He": 1373,
      "Ġwar": 1374,
      "Ġequ": 1375,
      "Ġwomen": 1376,
      "Ġdise": 1377,
      "Ġhead": 1378,
      "Ġperform": 1379,
      "oman": 1380,
      "ajor": 1381,
      "ission": 1382,
      "Ġrece": 1383,
      "not": 1384,
      "Ġfin": 1385,
      "Ġpri": 1386,
      "Ġappro": 1387,
      "vironment": 1388,
      "Ġeng": 1389,
      "Ġrun": 1390,
      "Ġnever": 1391,
      "ĠThere": 1392,
      "ternal": 1393,
      "min": 1394,
      "ĠGod": 1395,
      "Ġvis": 1396,
      "Ġ16": 1397,
      "Ġlater": 1398,
      "ĠPr": 1399,
      "pr": 1400,
      "Ġris": 1401,
      "Ġhuman": 1402,
      "ither": 1403,
      "Ġarea": 1404,
      "me": 1405,
      "ember": 1406,
      "âĢĶ": 1407,
      "Ġlaw": 1408,
      "Ġredu": 1409,
      "Ġunt": 1410,
      "ĠMar": 1411,
      "Ġcell": 1412,
      "iqu": 1413,
      "ĠWar": 1414,
      "ĠShe": 1415,
      "Ġoper": 1416,
      "ccess": 1417,
      "Ġopen": 1418,
      "mb": 1419,
      "ĠCan": 1420,
      "Ġstand": 1421,
      "ertain": 1422,
      "ĠBl": 1423,
      "inks": 1424,
      "iven": 1425,
      "by": 1426,
      "ĠSir": 1427,
      "ĠEx": 1428,
      "ĠOr": 1429,
      "For": 1430,
      "ards": 1431,
      "'t": 1432,
      "Ġsom": 1433,
      "Ġ196": 1434,
      "conom": 1435,
      "Ex": 1436,
      "ĠCount": 1437,
      "ĠWorld": 1438,
      "reen": 1439,
      "ĠNational": 1440,
      "ley": 1441,
      "erman": 1442,
      "aster": 1443,
      "mp": 1444,
      "Ġseveral": 1445,
      "Ġbus": 1446,
      "iod": 1447,
      "Ġpar": 1448,
      "Ġpract": 1449,
      "resent": 1450,
      "Ġlight": 1451,
      "Ġwant": 1452,
      "Ġtem": 1453,
      "Ġnear": 1454,
      "Ġmark": 1455,
      "ization": 1456,
      "augh": 1457,
      "Ġbelie": 1458,
      "Ġlarge": 1459,
      "Ġpos": 1460,
      "inc": 1461,
      "med": 1462,
      "Ġyet": 1463,
      "ling": 1464,
      "ration": 1465,
      "Ġve": 1466,
      "rodu": 1467,
      "Ġcap": 1468,
      "Ġfew": 1469,
      "Ġbas": 1470,
      "crib": 1471,
      "view": 1472,
      "erest": 1473,
      "Ġiss": 1474,
      "Ġearly": 1475,
      "Ġfamily": 1476,
      "Ġorig": 1477,
      "Ġeas": 1478,
      "ified": 1479,
      "ption": 1480,
      "ised": 1481,
      "ope": 1482,
      "Ġexample": 1483,
      "oms": 1484,
      "ober": 1485,
      "Ġdel": 1486,
      "ternational": 1487,
      "ried": 1488,
      "Ġstre": 1489,
      "ĠTe": 1490,
      "Ġsw": 1491,
      "atic": 1492,
      "Ġbetter": 1493,
      "wh": 1494,
      "ator": 1495,
      "Ġfoot": 1496,
      "illion": 1497,
      "ids": 1498,
      "cing": 1499,
      "Ġopp": 1500,
      "ps": 1501,
      "Ġreport": 1502,
      "Ġlo": 1503,
      "Ġchang": 1504,
      "ec": 1505,
      "Ġpain": 1506,
      "You": 1507,
      "Ġcaus": 1508,
      "Ġmil": 1509,
      "Ġgive": 1510,
      "ination": 1511,
      "Ġsit": 1512,
      "Ġ.": 1513,
      "ively": 1514,
      "Ġland": 1515,
      "ane": 1516,
      "Ġblood": 1517,
      "iver": 1518,
      "Ġuntil": 1519,
      "ividual": 1520,
      "ĠRes": 1521,
      "Ġgovernment": 1522,
      "St": 1523,
      "ĠJohn": 1524,
      "Ġ194": 1525,
      "Ġel": 1526,
      "ergy": 1527,
      "my": 1528,
      "Ġheart": 1529,
      "Ġkeep": 1530,
      "Ġestab": 1531,
      "Ġ12": 1532,
      "eb": 1533,
      "That": 1534,
      "port": 1535,
      "line": 1536,
      "tt": 1537,
      "Ġlove": 1538,
      "co": 1539,
      "Ġquest": 1540,
      "Ġes": 1541,
      "Ġunderstand": 1542,
      "ĠThese": 1543,
      "enn": 1544,
      "ĠCent": 1545,
      "ĠChrist": 1546,
      "aterial": 1547,
      "ources": 1548,
      "ĠCar": 1549,
      "Ġrecord": 1550,
      "por": 1551,
      "ĠMan": 1552,
      "self": 1553,
      "ung": 1554,
      "Ġplayers": 1555,
      "Ġlittle": 1556,
      "ental": 1557,
      "Ġbecame": 1558,
      "Ġfollowing": 1559,
      "Ġdevelopment": 1560,
      "ĠBrit": 1561,
      "oks": 1562,
      "Ġpolit": 1563,
      "Ġter": 1564,
      "Ġamong": 1565,
      "Ġproject": 1566,
      "Ġprogram": 1567,
      "ently": 1568,
      "ĠAll": 1569,
      "Ġchange": 1570,
      "21": 1571,
      "uthor": 1572,
      "arent": 1573,
      "fe": 1574,
      "If": 1575,
      "Ġmajor": 1576,
      "Ġmean": 1577,
      "ĠHowever": 1578,
      "urope": 1579,
      "Ġput": 1580,
      "Ġfore": 1581,
      "Ġmove": 1582,
      "agn": 1583,
      "ference": 1584,
      "Ġbecome": 1585,
      "Ġhapp": 1586,
      "Ġsocial": 1587,
      "Ġide": 1588,
      "Ġtyp": 1589,
      "Ġorder": 1590,
      "istor": 1591,
      "Ġinclude": 1592,
      "yl": 1593,
      "ai": 1594,
      "par": 1595,
      "Ġprom": 1596,
      "Ġtop": 1597,
      "ĠMay": 1598,
      "ify": 1599,
      "ole": 1600,
      "Ch": 1601,
      "Ġtre": 1602,
      "Ġlist": 1603,
      "Ġhistory": 1604,
      "urther": 1605,
      "itive": 1606,
      "Ġident": 1607,
      "though": 1608,
      ",âĢĿ": 1609,
      "We": 1610,
      "Ġindividual": 1611,
      "ethod": 1612,
      "\".": 1613,
      "ĠLord": 1614,
      "Ġyoung": 1615,
      "Ġfre": 1616,
      "Ġcult": 1617,
      "Ġleg": 1618,
      "ilt": 1619,
      "ided": 1620,
      "Ġbased": 1621,
      "12": 1622,
      "Ġproduct": 1623,
      "ĠMus": 1624,
      "Ġpot": 1625,
      "Ġplan": 1626,
      "wards": 1627,
      "anguage": 1628,
      "Ġlearn": 1629,
      "ways": 1630,
      "Ġimpro": 1631,
      "urch": 1632,
      "Ġfac": 1633,
      "ological": 1634,
      "Ġphys": 1635,
      "Ġdra": 1636,
      "rown": 1637,
      "Ġcause": 1638,
      "Ġmov": 1639,
      "lu": 1640,
      "ĠAf": 1641,
      "ored": 1642,
      "Ġche": 1643,
      "Ġant": 1644,
      "Ġdon": 1645,
      "ourn": 1646,
      "ills": 1647,
      "Ġinterest": 1648,
      "Ġhy": 1649,
      "Ġenvironment": 1650,
      "Ġseason": 1651,
      "16": 1652,
      "ĠâĢĺ": 1653,
      "aken": 1654,
      "atural": 1655,
      "rict": 1656,
      "Ġproper": 1657,
      "Ġlow": 1658,
      "ox": 1659,
      "17": 1660,
      "ining": 1661,
      "Ġmaterial": 1662,
      "Ġaddition": 1663,
      "Ġwee": 1664,
      "Ġet": 1665,
      "ention": 1666,
      "cle": 1667,
      "Ġleft": 1668,
      "ones": 1669,
      "sh": 1670,
      "How": 1671,
      "Ġshort": 1672,
      "ued": 1673,
      "Ġdue": 1674,
      "ĠAm": 1675,
      "let": 1676,
      "Ġage": 1677,
      "sel": 1678,
      "Ġdev": 1679,
      "ĠEnglish": 1680,
      "Ġturn": 1681,
      "Ġalong": 1682,
      "Ġsuccess": 1683,
      "Ġmeans": 1684,
      "rie": 1685,
      "rum": 1686,
      "Ġcurrent": 1687,
      "Ġenergy": 1688,
      "ĠSouth": 1689,
      "Ġanal": 1690,
      "yn": 1691,
      "Ġcontrol": 1692,
      "ours": 1693,
      "Ġess": 1694,
      "asure": 1695,
      "ister": 1696,
      "ploy": 1697,
      "Ġnon": 1698,
      "ĠEurope": 1699,
      "Ġothers": 1700,
      "Ġthings": 1701,
      "Ġperiod": 1702,
      "ote": 1703,
      "Ġtru": 1704,
      "ability": 1705,
      "50": 1706,
      "stit": 1707,
      "Ġthee": 1708,
      "Ġtimes": 1709,
      "ĠGerman": 1710,
      "Ġstat": 1711,
      "Ġcountry": 1712,
      "ĠUS": 1713,
      "On": 1714,
      "Ġaway": 1715,
      "Ġhig": 1716,
      "Ġinvol": 1717,
      "fic": 1718,
      "Ġtell": 1719,
      "osp": 1720,
      "ches": 1721,
      "Ġanim": 1722,
      "Ġspecies": 1723,
      "Ġparticular": 1724,
      "ae": 1725,
      "Ġoffic": 1726,
      "icle": 1727,
      "Ġfar": 1728,
      "Ġfield": 1729,
      "Ġpost": 1730,
      "Ġdisease": 1731,
      "ances": 1732,
      "Ġwin": 1733,
      "Ġeconom": 1734,
      "ode": 1735,
      "ott": 1736,
      "ague": 1737,
      "ird": 1738,
      "ĠPar": 1739,
      "imate": 1740,
      "ĠEn": 1741,
      "Ġreal": 1742,
      "ories": 1743,
      "Ġavail": 1744,
      "ĠAust": 1745,
      "Ġgiven": 1746,
      "ape": 1747,
      "âĢľ": 1748,
      "Ġprofess": 1749,
      "Ġlocal": 1750,
      "Ġreturn": 1751,
      "idd": 1752,
      "ware": 1753,
      "idence": 1754,
      "alf": 1755,
      "ze": 1756,
      "ĠGu": 1757,
      "Ġlinks": 1758,
      "Ġey": 1759,
      "Ġbene": 1760,
      "ogn": 1761,
      "Ġbusiness": 1762,
      "ĠWhen": 1763,
      "ots": 1764,
      "oph": 1765,
      "ĠSchool": 1766,
      "ublic": 1767,
      "abor": 1768,
      "pecial": 1769,
      "ĠGo": 1770,
      "ged": 1771,
      "ĠâĢĶ": 1772,
      "Ġple": 1773,
      "Ġassoci": 1774,
      "Ġable": 1775,
      "olution": 1776,
      "Ġplant": 1777,
      "ĠYork": 1778,
      "Ġfriend": 1779,
      "ĠGe": 1780,
      "Ġcolle": 1781,
      "ource": 1782,
      "amed": 1783,
      "'d": 1784,
      "Ġfree": 1785,
      "Ġhouse": 1786,
      "ĠNorth": 1787,
      "Ġmethod": 1788,
      "Ġlim": 1789,
      "mit": 1790,
      "work": 1791,
      "for": 1792,
      "Ġcase": 1793,
      "atch": 1794,
      "Ġbook": 1795,
      "Ġlarg": 1796,
      "hing": 1797,
      "Ġnext": 1798,
      "There": 1799,
      "15": 1800,
      "aper": 1801,
      "ilar": 1802,
      "ony": 1803,
      "arc": 1804,
      "iam": 1805,
      "ĠTo": 1806,
      "ows": 1807,
      "Ġcost": 1808,
      "Ġever": 1809,
      "Ġhard": 1810,
      "Ġprovide": 1811,
      "Ġside": 1812,
      "ients": 1813,
      "Ġpossible": 1814,
      "Ġcame": 1815,
      "An": 1816,
      "Ġoccur": 1817,
      "Ġfull": 1818,
      "ĠCal": 1819,
      "Ġdone": 1820,
      "Ġ14": 1821,
      "Ġ[": 1822,
      "ĠFl": 1823,
      "af": 1824,
      "Ġvir": 1825,
      "Ġpoint": 1826,
      "Ġcertain": 1827,
      "oney": 1828,
      "Ġann": 1829,
      "rap": 1830,
      "Ġdays": 1831,
      "Ġsignific": 1832,
      "Ġbi": 1833,
      "ĠMed": 1834,
      "ctor": 1835,
      "ĠAfric": 1836,
      "sw": 1837,
      "Ġrisk": 1838,
      "11": 1839,
      "att": 1840,
      "che": 1841,
      "over": 1842,
      "ales": 1843,
      "Ġstruct": 1844,
      "aces": 1845,
      "Ġill": 1846,
      "Ġline": 1847,
      "ĠGen": 1848,
      "Ġseem": 1849,
      "Ġlik": 1850,
      "Ġkind": 1851,
      "Ġhon": 1852,
      "Ġworks": 1853,
      "Ġmusic": 1854,
      "fer": 1855,
      "vious": 1856,
      "Ġla": 1857,
      "Ġview": 1858,
      "ĠJan": 1859,
      "ĠNe": 1860,
      "Ġdescrib": 1861,
      "Ġlive": 1862,
      "Ġvol": 1863,
      "Ġcannot": 1864,
      "Ġfall": 1865,
      "Ġcity": 1866,
      "Ġareas": 1867,
      "int": 1868,
      "ĠEar": 1869,
      "ably": 1870,
      "Ġseries": 1871,
      "ĠState": 1872,
      "Ġobs": 1873,
      "Ġavailable": 1874,
      "right": 1875,
      "Ġ13": 1876,
      "uary": 1877,
      "ĠRep": 1878,
      "Ġrepresent": 1879,
      "gether": 1880,
      "Ġcho": 1881,
      "Ġcentury": 1882,
      "ipp": 1883,
      "Ġsent": 1884,
      "14": 1885,
      "omm": 1886,
      "Ġmaking": 1887,
      "rench": 1888,
      "ocus": 1889,
      "Ġtogether": 1890,
      "13": 1891,
      "Ġgr": 1892,
      "Ġhaving": 1893,
      "Ġcal": 1894,
      "Ġ193": 1895,
      "ĠAss": 1896,
      "Ġcond": 1897,
      "aim": 1898,
      "ww": 1899,
      "Al": 1900,
      "ead": 1901,
      "ĠJu": 1902,
      "ĠComp": 1903,
      "ĠCo": 1904,
      "Ġprevent": 1905,
      "Ġauthor": 1906,
      "Ġmult": 1907,
      "son": 1908,
      "irc": 1909,
      "erc": 1910,
      "Ġabove": 1911,
      "Ġfeel": 1912,
      "Ġsays": 1913,
      "oid": 1914,
      "ression": 1915,
      "aves": 1916,
      "Ġwhy": 1917,
      "Ġtook": 1918,
      "ortun": 1919,
      "ison": 1920,
      "ugust": 1921,
      "ĠCity": 1922,
      "Ġcrit": 1923,
      "Ġpercent": 1924,
      "aps": 1925,
      "ĠMarch": 1926,
      "Ġaccess": 1927,
      "most": 1928,
      "Ġindust": 1929,
      "aut": 1930,
      "ured": 1931,
      "app": 1932,
      "ster": 1933,
      "Ġinvest": 1934,
      "Ġ$": 1935,
      "Ġpopulation": 1936,
      "aring": 1937,
      "Ġrad": 1938,
      "Ġprop": 1939,
      "Ġfilm": 1940,
      "ĠPol": 1941,
      "Ġleast": 1942,
      "ĠPe": 1943,
      "ruction": 1944,
      "ĠAb": 1945,
      "agement": 1946,
      "Ġcommunity": 1947,
      "Ġcreat": 1948,
      "Ġstrong": 1949,
      "Ġ0": 1950,
      "ament": 1951,
      "Ġmillion": 1952,
      "ators": 1953,
      "Ġpress": 1954,
      "Ġscient": 1955,
      "ney": 1956,
      "Ġmembers": 1957,
      "Ġcharacter": 1958,
      "Ġaffect": 1959,
      "val": 1960,
      "Ġspecial": 1961,
      "Ġdri": 1962,
      "aining": 1963,
      ",\"": 1964,
      "ribut": 1965,
      "Ġsingle": 1966,
      "Ġhold": 1967,
      "Ġtext": 1968,
      "Ġbegan": 1969,
      "Ġonce": 1970,
      "Ġfive": 1971,
      "ief": 1972,
      "Ġlearning": 1973,
      "rew": 1974,
      "Ġeducation": 1975,
      "199": 1976,
      "oul": 1977,
      "ĠSy": 1978,
      "Ġbegin": 1979,
      "External": 1980,
      "Ġvarious": 1981,
      "bum": 1982,
      "Ġnational": 1983,
      "ledge": 1984,
      "Ġenc": 1985,
      "rand": 1986,
      "Ġfa": 1987,
      "ched": 1988,
      "ĠHis": 1989,
      "ges": 1990,
      "Ġexam": 1991,
      "Ġcompany": 1992,
      "Ġ195": 1993,
      "Ġenough": 1994,
      "sy": 1995,
      "aced": 1996,
      "Ġtri": 1997,
      "Ġsure": 1998,
      "Ġfootball": 1999,
      "ask": 2000,
      "Ġcr": 2001,
      "ĠWhat": 2002,
      "Ġwords": 2003,
      "Ġ30": 2004,
      "Ġdam": 2005,
      "itor": 2006,
      "Ġpast": 2007,
      "ĠMin": 2008,
      "Ġmeet": 2009,
      "When": 2010,
      "Ġcomb": 2011,
      "ĠBritish": 2012,
      "eter": 2013,
      "side": 2014,
      "atory": 2015,
      "My": 2016,
      "Ġmind": 2017,
      "pril": 2018,
      "ĠSu": 2019,
      "Ġgeneral": 2020,
      "iol": 2021,
      "ething": 2022,
      "ĠII": 2023,
      "Ġsum": 2024,
      "Ġaut": 2025,
      "Ġsignificant": 2026,
      "ese": 2027,
      "ĠX": 2028,
      "isc": 2029,
      "Ġnatural": 2030,
      "uture": 2031,
      "Ġlanguage": 2032,
      "Ġask": 2033,
      "Ġfocus": 2034,
      "\",": 2035,
      "Ġtype": 2036,
      "bo": 2037,
      "Ġkill": 2038,
      "Ġcourse": 2039,
      "Ġinde": 2040,
      "Ġdr": 2041,
      "Ġer": 2042,
      "Ġtreatment": 2043,
      "ĠTr": 2044,
      "With": 2045,
      "apan": 2046,
      "Ġobject": 2047,
      "Ġevent": 2048,
      "Ġfurther": 2049,
      "ĠOct": 2050,
      "selves": 2051,
      "ptember": 2052,
      "ires": 2053,
      "Ġthought": 2054,
      "ement": 2055,
      "sp": 2056,
      "Ġtaken": 2057,
      "ĠJune": 2058,
      "ĠAfter": 2059,
      "22": 2060,
      "oon": 2061,
      "Ġreason": 2062,
      "dom": 2063,
      "Ġterm": 2064,
      "Ġpublished": 2065,
      "Ġthus": 2066,
      "Ġsimilar": 2067,
      "ĠAugust": 2068,
      "itary": 2069,
      "ĠCanad": 2070,
      "ggest": 2071,
      "Ġsuggest": 2072,
      "Ġhowever": 2073,
      "cri": 2074,
      "Ġdeb": 2075,
      "ips": 2076,
      "Ġalways": 2077,
      "Ġground": 2078,
      "Ġsix": 2079,
      "ument": 2080,
      "Ġrole": 2081,
      "eds": 2082,
      "ĠSoc": 2083,
      "Ġbuilding": 2084,
      "Ġdeterm": 2085,
      "ĠMe": 2086,
      "rad": 2087,
      "Ġprotect": 2088,
      "ĠHar": 2089,
      "Ġmakes": 2090,
      "Ġamount": 2091,
      "Ġseen": 2092,
      "org": 2093,
      "ivil": 2094,
      "ĠCounty": 2095,
      "ĠPart": 2096,
      "ĠAustral": 2097,
      "yle": 2098,
      "Ġsong": 2099,
      "pecially": 2100,
      "Ġproblem": 2101,
      "Ġkey": 2102,
      "rance": 2103,
      "Ġformer": 2104,
      "rug": 2105,
      "ned": 2106,
      "adem": 2107,
      "Ġservice": 2108,
      "ready": 2109,
      "ĠSw": 2110,
      "asing": 2111,
      "Ġimpact": 2112,
      "Ġlevels": 2113,
      "Ġcomput": 2114,
      "rate": 2115,
      "Ġeither": 2116,
      "ger": 2117,
      "face": 2118,
      "Ġproblems": 2119,
      "Ġmot": 2120,
      "Ġprim": 2121,
      "ĠEd": 2122,
      "Ġworking": 2123,
      "ography": 2124,
      "ĠFran": 2125,
      "ficult": 2126,
      "Ġresults": 2127,
      "alt": 2128,
      "Ġfunction": 2129,
      "Ġwon": 2130,
      "men": 2131,
      "ication": 2132,
      "ĠNo": 2133,
      "Ġspace": 2134,
      "iting": 2135,
      "ights": 2136,
      "Ġimm": 2137,
      "ĠOne": 2138,
      "ique": 2139,
      "Ġsomething": 2140,
      "reg": 2141,
      "iation": 2142,
      "Ġproduction": 2143,
      "rought": 2144,
      "oura": 2145,
      "aff": 2146,
      "ius": 2147,
      "Ġaff": 2148,
      "Ġacross": 2149,
      "Ġword": 2150,
      "uck": 2151,
      "aching": 2152,
      "Ġexist": 2153,
      "Ġrather": 2154,
      "ĠArt": 2155,
      "ĠApril": 2156,
      "Ġnet": 2157,
      "Ġtry": 2158,
      "Ġnecess": 2159,
      "Ġcells": 2160,
      "ĠJanuary": 2161,
      "ler": 2162,
      "ival": 2163,
      "duct": 2164,
      "Ġteac": 2165,
      "icro": 2166,
      "Ġsystems": 2167,
      "Ġusually": 2168,
      "ĠJuly": 2169,
      "amm": 2170,
      "ĠBy": 2171,
      "Ġexpect": 2172,
      "atures": 2173,
      "Ġincrease": 2174,
      "ĠBar": 2175,
      "Ġclear": 2176,
      "Ġconcer": 2177,
      "Ġbenef": 2178,
      "lement": 2179,
      "Ġparent": 2180,
      "Ġ=": 2181,
      "Ġhalf": 2182,
      "ana": 2183,
      "amb": 2184,
      "Ġwind": 2185,
      "Ġbuilt": 2186,
      "Ġheav": 2187,
      "ush": 2188,
      "ilities": 2189,
      "Ġthing": 2190,
      "Ġneeds": 2191,
      "Ġpotential": 2192,
      "ĠThat": 2193,
      "nect": 2194,
      "Ġdifficult": 2195,
      "Ġappear": 2196,
      "ĠSeptember": 2197,
      "Ġsubject": 2198,
      "cember": 2199,
      "mpt": 2200,
      "Ġalbum": 2201,
      "ners": 2202,
      "Ġvers": 2203,
      "artment": 2204,
      "overed": 2205,
      "ency": 2206,
      "lo": 2207,
      "Ġtemper": 2208,
      "Ġtrue": 2209,
      "Ġspeak": 2210,
      "etic": 2211,
      "cil": 2212,
      "urg": 2213,
      "Ġrelations": 2214,
      "Ġhigher": 2215,
      "Ġlikely": 2216,
      "ĠWest": 2217,
      "Ġcountries": 2218,
      "Ġemploy": 2219,
      "use": 2220,
      "ification": 2221,
      "Ġ11": 2222,
      "Ġtot": 2223,
      "Ġdest": 2224,
      "Ġstory": 2225,
      "Ġloss": 2226,
      "Ġdeg": 2227,
      "Ġinflu": 2228,
      "Ġfuture": 2229,
      "Ġgame": 2230,
      "ection": 2231,
      "Ġjoin": 2232,
      "Ġwhole": 2233,
      "ops": 2234,
      "ille": 2235,
      "ournal": 2236,
      "Ġconsum": 2237,
      "Ġalready": 2238,
      "hips": 2239,
      "rel": 2240,
      "omes": 2241,
      "obal": 2242,
      "Ġparticip": 2243,
      "Ġbehav": 2244,
      "sc": 2245,
      "Ġcompet": 2246,
      "Ġrepl": 2247,
      "Ġri": 2248,
      "ĠSte": 2249,
      "erve": 2250,
      "ĠCour": 2251,
      "Ġpay": 2252,
      "ovember": 2253,
      "Ġcreate": 2254,
      "Ġexperience": 2255,
      "na": 2256,
      "estern": 2257,
      "Ġsuff": 2258,
      "Ġrespons": 2259,
      "ino": 2260,
      "ĠOctober": 2261,
      "Ġz": 2262,
      "rated": 2263,
      "atter": 2264,
      "Ġconsider": 2265,
      "ude": 2266,
      "Ġaccount": 2267,
      "ĠWith": 2268,
      "Ġtechnology": 2269,
      "ĠBo": 2270,
      "ounds": 2271,
      "erson": 2272,
      "ites": 2273,
      "uel": 2274,
      "Ġinit": 2275,
      "Ġgoing": 2276,
      "ysis": 2277,
      "acks": 2278,
      "Ġsite": 2279,
      "chie": 2280,
      "ront": 2281,
      "Ġlate": 2282,
      "ĠFrench": 2283,
      "ondon": 2284,
      "Ġfund": 2285,
      "attle": 2286,
      "empt": 2287,
      "ĠJapan": 2288,
      "Ġheld": 2289,
      "ebru": 2290,
      "ĠGl": 2291,
      "Ġhistor": 2292,
      "tended": 2293,
      "Ġapplic": 2294,
      "ebruary": 2295,
      "Ġye": 2296,
      "Ġnight": 2297,
      "urb": 2298,
      "Ġcamp": 2299,
      "aid": 2300,
      "Ġconditions": 2301,
      "istic": 2302,
      "Ġpriv": 2303,
      "Ġespecially": 2304,
      "Ġcreated": 2305,
      "Ġaccording": 2306,
      "Ġplayed": 2307,
      "Ġcomes": 2308,
      "Ġplants": 2309,
      "cul": 2310,
      "ĠReg": 2311,
      "lev": 2312,
      "aged": 2313,
      "ples": 2314,
      "oes": 2315,
      "Ġport": 2316,
      "Ġfail": 2317,
      "Ġdou": 2318,
      "Ġintrodu": 2319,
      "Ġspecific": 2320,
      "Ġfire": 2321,
      "verage": 2322,
      "umb": 2323,
      "Ġtoday": 2324,
      "Ġexc": 2325,
      "Ġchanges": 2326,
      "Ġestablished": 2327,
      "ĠColle": 2328,
      "ĠChar": 2329,
      "Ġlay": 2330,
      "Ġpolic": 2331,
      "Ġrequire": 2332,
      "Ġengine": 2333,
      "Ġgroups": 2334,
      "ĠAct": 2335,
      "Ġcirc": 2336,
      "ibr": 2337,
      "ateg": 2338,
      "Ġarch": 2339,
      "Ġdiscuss": 2340,
      "pre": 2341,
      "ford": 2342,
      "ĠSo": 2343,
      "Ġreleased": 2344,
      "Ġmor": 2345,
      "Ġbring": 2346,
      "ĠMon": 2347,
      "bor": 2348,
      "Ġthemselves": 2349,
      "Ġstudies": 2350,
      "Ġtown": 2351,
      "__": 2352,
      "Ġblack": 2353,
      "Be": 2354,
      "sequ": 2355,
      "Ġ/": 2356,
      "Ġfear": 2357,
      "Ġwhether": 2358,
      "Ġfather": 2359,
      "Ġcut": 2360,
      "Ġpoor": 2361,
      "ĠAmerica": 2362,
      "Ġansw": 2363,
      "ĠDep": 2364,
      "ĠStud": 2365,
      "ĠDecember": 2366,
      "uk": 2367,
      "hib": 2368,
      "Ġep": 2369,
      "No": 2370,
      "Ġ25": 2371,
      "Ġbrain": 2372,
      "Ġreceived": 2373,
      "Ġsens": 2374,
      "ule": 2375,
      "ĠHer": 2376,
      "anger": 2377,
      "Ġtit": 2378,
      "ĠLad": 2379,
      "Ġpolitical": 2380,
      "Ġborn": 2381,
      "lected": 2382,
      "lands": 2383,
      "Ġred": 2384,
      "Ġeffects": 2385,
      "NA": 2386,
      "Ġimprove": 2387,
      "born": 2388,
      "Ġ||": 2389,
      "Ġpoin": 2390,
      "urs": 2391,
      "ened": 2392,
      "etimes": 2393,
      "ĠQu": 2394,
      "ellow": 2395,
      "ham": 2396,
      "Ġver": 2397,
      "leep": 2398,
      "Ġmodel": 2399,
      "ĠNovember": 2400,
      "Ġconsidered": 2401,
      "Ġcancer": 2402,
      "Ġways": 2403,
      "Ġlower": 2404,
      "Ġdeveloped": 2405,
      "ĠSome": 2406,
      "Ġlost": 2407,
      "ables": 2408,
      "Ġ2011": 2409,
      "Ġmeasure": 2410,
      "Ġson": 2411,
      "uation": 2412,
      "Ġofficial": 2413,
      "Ġbig": 2414,
      "Ġknowledge": 2415,
      "Ġeff": 2416,
      "urity": 2417,
      "ike": 2418,
      "Ġinj": 2419,
      "//": 2420,
      "Ġled": 2421,
      "Ġphot": 2422,
      "Ġstep": 2423,
      "Ġsold": 2424,
      "incip": 2425,
      "23": 2426,
      "ĠTra": 2427,
      "Ġhimself": 2428,
      "go": 2429,
      "Ġcy": 2430,
      "ĠFebruary": 2431,
      "ĠEl": 2432,
      "ols": 2433,
      "cret": 2434,
      "Ġneg": 2435,
      "Ġrecogn": 2436,
      "rs": 2437,
      "Ġdepend": 2438,
      "Ġ2010": 2439,
      "raft": 2440,
      "Ġabs": 2441,
      "Ġtradition": 2442,
      "ĠPre": 2443,
      "Ġrange": 2444,
      "Ġrelig": 2445,
      "Ġbur": 2446,
      "Ġparts": 2447,
      "By": 2448,
      "ĠPres": 2449,
      "ĠPer": 2450,
      "ĠMad": 2451,
      "iddle": 2452,
      "Ġnature": 2453,
      "Ġ2012": 2454,
      "://": 2455,
      "Ġwent": 2456,
      "Ġopt": 2457,
      "acy": 2458,
      "aul": 2459,
      "minist": 2460,
      "Ġchall": 2461,
      "Ġquestion": 2462,
      "Ġdom": 2463,
      "Ġcases": 2464,
      "ĠRuss": 2465,
      "rick": 2466,
      "Ġindic": 2467,
      "Ġquick": 2468,
      "thing": 2469,
      "Ġmember": 2470,
      "Ġdig": 2471,
      "Ġmoney": 2472,
      "Ġpurp": 2473,
      "Ġthird": 2474,
      "ington": 2475,
      "Ġens": 2476,
      "Ġwhite": 2477,
      "roll": 2478,
      "Ġ2007": 2479,
      "mptoms": 2480,
      "ideo": 2481,
      "Ġleave": 2482,
      "ma": 2483,
      "ĠHouse": 2484,
      "Ġprevious": 2485,
      "Ġdecl": 2486,
      "earch": 2487,
      "Ġcareer": 2488,
      "So": 2489,
      "Ġchem": 2490,
      "ores": 2491,
      "30": 2492,
      "lex": 2493,
      "Ġ2008": 2494,
      "iding": 2495,
      "uf": 2496,
      "Ġbar": 2497,
      "Ġbelow": 2498,
      "Americ": 2499,
      "tain": 2500,
      "Ġservices": 2501,
      "Of": 2502,
      "sych": 2503,
      "utes": 2504,
      "rig": 2505,
      "Sh": 2506,
      "ĠIndia": 2507,
      "ume": 2508,
      "ils": 2509,
      "ĠBro": 2510,
      "Ġi": 2511,
      "Ġoriginal": 2512,
      "ibility": 2513,
      "ĠCont": 2514,
      "Ġ24": 2515,
      "Ġdied": 2516,
      "lin": 2517,
      "Ġcoun": 2518,
      "oor": 2519,
      "Ġachie": 2520,
      "Ġresearc": 2521,
      "Ġnamed": 2522,
      "Ġtypes": 2523,
      "Ġvill": 2524,
      "Ġvalue": 2525,
      "ER": 2526,
      "iment": 2527,
      "Ġcoll": 2528,
      "Ġscience": 2529,
      "Ġwritten": 2530,
      "bon": 2531,
      "Ġtotal": 2532,
      "Ġpatients": 2533,
      "Ġclaim": 2534,
      "Ġflow": 2535,
      "Ġalmost": 2536,
      "abit": 2537,
      "Ġ100": 2538,
      "Ġmass": 2539,
      "Ġlab": 2540,
      "Ġmarket": 2541,
      "Ġ,": 2542,
      "Ġobserv": 2543,
      "Ġnorm": 2544,
      "Ġdoc": 2545,
      "iers": 2546,
      "Ġwhose": 2547,
      "Ġpaper": 2548,
      "ĠDr": 2549,
      "onst": 2550,
      "ĠDes": 2551,
      "Ġsat": 2552,
      "ressed": 2553,
      "Ġliving": 2554,
      "ĠHigh": 2555,
      "ĠPhil": 2556,
      "Ġste": 2557,
      "like": 2558,
      "Ġincluded": 2559,
      "iction": 2560,
      "Ġpractice": 2561,
      "Ġquality": 2562,
      "iforn": 2563,
      "Ġdiv": 2564,
      "ampions": 2565,
      "cies": 2566,
      "ĠCor": 2567,
      "oe": 2568,
      "Ġposition": 2569,
      "Ġinternational": 2570,
      "den": 2571,
      "Ġactivities": 2572,
      "ridge": 2573,
      "Ġgrowth": 2574,
      "ĠLondon": 2575,
      "Ġsoon": 2576,
      "Ġissues": 2577,
      "ĠMc": 2578,
      "ceed": 2579,
      "ensive": 2580,
      "ĠJew": 2581,
      "ety": 2582,
      "Ġstay": 2583,
      "Ġcommand": 2584,
      "rams": 2585,
      "rote": 2586,
      "ĠHealth": 2587,
      "acc": 2588,
      "Ġrights": 2589,
      "fficient": 2590,
      "Ġbreak": 2591,
      "ĠWilliam": 2592,
      "ming": 2593,
      "aries": 2594,
      "ifornia": 2595,
      "Ġnothing": 2596,
      "Ġregion": 2597,
      "Ġkn": 2598,
      "Ġswe": 2599,
      "Ġmodern": 2600,
      "century": 2601,
      "Ġserved": 2602,
      "Ġfrequ": 2603,
      "olic": 2604,
      "vere": 2605,
      "Ġreview": 2606,
      "ĠCoun": 2607,
      "Is": 2608,
      "Ġpopular": 2609,
      "198": 2610,
      "Ġface": 2611,
      "Ġmonths": 2612,
      "Ġfair": 2613,
      "eum": 2614,
      "Ġassociated": 2615,
      "ĠInstit": 2616,
      "Why": 2617,
      "Ġsil": 2618,
      "put": 2619,
      "entle": 2620,
      "iber": 2621,
      "Ġproducts": 2622,
      "ĠLeague": 2623,
      "Ġactivity": 2624,
      "ĠCourt": 2625,
      "ccording": 2626,
      "Ġproduced": 2627,
      "Ġsuper": 2628,
      "ĠIndian": 2629,
      "hel": 2630,
      "Ġrate": 2631,
      "Ġtalk": 2632,
      "Ġentire": 2633,
      "ĠSch": 2634,
      "):": 2635,
      "Ġrespect": 2636,
      "Ġtend": 2637,
      "ĠRo": 2638,
      "Ġlot": 2639,
      "Ġphysical": 2640,
      "See": 2641,
      "ift": 2642,
      "Ġrelated": 2643,
      "ĠLaw": 2644,
      "ym": 2645,
      "irl": 2646,
      "rect": 2647,
      "Ġlocated": 2648,
      "usion": 2649,
      "Ġhope": 2650,
      "Ã¡": 2651,
      "Ġprob": 2652,
      "Ġmatter": 2653,
      "ĠEngland": 2654,
      "Ġstates": 2655,
      "ĠAc": 2656,
      "utions": 2657,
      "icles": 2658,
      "Ġrul": 2659,
      "with": 2660,
      "Ġnor": 2661,
      "ground": 2662,
      "Ġarg": 2663,
      "Ġviol": 2664,
      "aly": 2665,
      "ĠAng": 2666,
      "Ġbrought": 2667,
      "ani": 2668,
      "Ġsoft": 2669,
      "Ġrev": 2670,
      "Ġwriting": 2671,
      "Ġschools": 2672,
      "aving": 2673,
      "Ġweek": 2674,
      "Ġshows": 2675,
      "hold": 2676,
      "ream": 2677,
      "Ġfinal": 2678,
      "ump": 2679,
      "cient": 2680,
      "Ġbelieve": 2681,
      "Ġdraw": 2682,
      "25": 2683,
      "Ġcontent": 2684,
      "AS": 2685,
      "umn": 2686,
      "hood": 2687,
      "Ġcop": 2688,
      "ising": 2689,
      "Ġdrug": 2690,
      "mon": 2691,
      "duc": 2692,
      "Ġmedical": 2693,
      "ĠAnt": 2694,
      "ĠChurch": 2695,
      "medi": 2696,
      "ĠDav": 2697,
      "anies": 2698,
      "Ġ2013": 2699,
      "ached": 2700,
      "Ġorigin": 2701,
      "ging": 2702,
      "Ġ50": 2703,
      "ĠVir": 2704,
      "Ġ2009": 2705,
      "Ġattempt": 2706,
      "ĠCalifornia": 2707,
      "oses": 2708,
      "Un": 2709,
      "aint": 2710,
      "Ġmother": 2711,
      "Ġsymptoms": 2712,
      "ĠInternational": 2713,
      "rim": 2714,
      ".)": 2715,
      "Ġrequired": 2716,
      "atives": 2717,
      "Ġmer": 2718,
      "Ġsurface": 2719,
      "American": 2720,
      "Ã³": 2721,
      "ĠRiver": 2722,
      "Ġarticle": 2723,
      "Ġpie": 2724,
      "At": 2725,
      "ĠServ": 2726,
      "ades": 2727,
      "Ġresources": 2728,
      "ĠLove": 2729,
      "Ġcomplex": 2730,
      "lying": 2731,
      "Ġconcept": 2732,
      "action": 2733,
      "Ġsize": 2734,
      "Ġtherefore": 2735,
      "Ġfav": 2736,
      "Ġsource": 2737,
      "ara": 2738,
      "ico": 2739,
      "Ġsepar": 2740,
      "Ġopportun": 2741,
      "ĠSm": 2742,
      "ĠEm": 2743,
      "well": 2744,
      "Ġtaking": 2745,
      "asons": 2746,
      "Ġut": 2747,
      "Ġevidence": 2748,
      "Ġfat": 2749,
      "Ġclose": 2750,
      "oyal": 2751,
      "ĠDo": 2752,
      "ening": 2753,
      "amin": 2754,
      "Ġassist": 2755,
      "Ġbirths": 2756,
      "Ġincreased": 2757,
      "Ġliter": 2758,
      "eration": 2759,
      "ĠCollege": 2760,
      "--": 2761,
      "Ġstri": 2762,
      "Ġlonger": 2763,
      "chan": 2764,
      "osis": 2765,
      "ĠEarth": 2766,
      "Ġaction": 2767,
      "iences": 2768,
      "Ġreally": 2769,
      "Ġ2017": 2770,
      "Ġmanagement": 2771,
      "Ġbase": 2772,
      "De": 2773,
      "ica": 2774,
      "Ġfish": 2775,
      "fect": 2776,
      "osition": 2777,
      "Ġregard": 2778,
      "Ġsun": 2779,
      "Ġfem": 2780,
      "ords": 2781,
      "Ġsaf": 2782,
      "Ġnut": 2783,
      "Ġhands": 2784,
      "ommend": 2785,
      "Ġstarted": 2786,
      "Ġfamil": 2787,
      "ira": 2788,
      "Ġnorth": 2789,
      "ences": 2790,
      "Ġthroughout": 2791,
      "ĠAg": 2792,
      "Ġconduct": 2793,
      "Ar": 2794,
      "que": 2795,
      "Ġstudent": 2796,
      "ĠPark": 2797,
      "rest": 2798,
      "Ġtraining": 2799,
      "Ġforce": 2800,
      "aging": 2801,
      "teg": 2802,
      "ivity": 2803,
      "Ġdetail": 2804,
      "Ġmis": 2805,
      "nes": 2806,
      "Ġlives": 2807,
      "aughter": 2808,
      "Ġrecommend": 2809,
      "rong": 2810,
      "Ġge": 2811,
      "Ġdesigned": 2812,
      "Ġthous": 2813,
      "ES": 2814,
      "Ġhear": 2815,
      "Ġ2016": 2816,
      "Ġ2014": 2817,
      "Ġreported": 2818,
      "ele": 2819,
      "ĠEast": 2820,
      "Ġcondition": 2821,
      "oved": 2822,
      "Ġhor": 2823,
      "Ġpersonal": 2824,
      "Ġdog": 2825,
      "ĠGovern": 2826,
      "Ġevents": 2827,
      "asc": 2828,
      "Ġdisp": 2829,
      "ĠQue": 2830,
      "Ġ190": 2831,
      "fully": 2832,
      "Ġsqu": 2833,
      "Ġcapt": 2834,
      "Ġwhom": 2835,
      "anced": 2836,
      "Ġreading": 2837,
      "vey": 2838,
      "Ġfarm": 2839,
      "ĠMy": 2840,
      "Ġaccept": 2841,
      "Ġreduce": 2842,
      "range": 2843,
      "Ġoil": 2844,
      "oke": 2845,
      "Ġpath": 2846,
      "Ġprincip": 2847,
      "Ġfig": 2848,
      "imately": 2849,
      "Ġfight": 2850,
      "Ġpred": 2851,
      "based": 2852,
      "Ġwebs": 2853,
      "Ġskills": 2854,
      "ha": 2855,
      "het": 2856,
      "ror": 2857,
      "gar": 2858,
      "anish": 2859,
      "izing": 2860,
      "riate": 2861,
      "Ġitself": 2862,
      "Ġdead": 2863,
      "Ġconnect": 2864,
      "ĠSan": 2865,
      "Ġquestions": 2866,
      "ĠCons": 2867,
      "Not": 2868,
      "Ġsaw": 2869,
      "Ġsurv": 2870,
      "ĠIm": 2871,
      "Ġdiet": 2872,
      "Ġterms": 2873,
      "Ġhours": 2874,
      "Ġsouth": 2875,
      "Ġeconomic": 2876,
      "Ġmultip": 2877,
      "hern": 2878,
      "Ġbra": 2879,
      "ĠAir": 2880,
      "Ġflu": 2881,
      "Ġ2006": 2882,
      "AR": 2883,
      "elt": 2884,
      "Ġprovided": 2885,
      "come": 2886,
      "Ġ21": 2887,
      "Ġsimple": 2888,
      "ĠAssoci": 2889,
      "Ġsound": 2890,
      "Ġclimate": 2891,
      "aily": 2892,
      "aches": 2893,
      "Ġsleep": 2894,
      "Ġanalysis": 2895,
      "itation": 2896,
      "Ġregular": 2897,
      "ĠTw": 2898,
      "Ġadult": 2899,
      "Ġfit": 2900,
      "Ġanimals": 2901,
      "Ġprot": 2902,
      "ought": 2903,
      "Ġeffective": 2904,
      "ald": 2905,
      "Ġability": 2906,
      "Ġelse": 2907,
      "undred": 2908,
      "Ġ2015": 2909,
      "ĠEuropean": 2910,
      "orge": 2911,
      "Ġstop": 2912,
      "Ġjud": 2913,
      "ads": 2914,
      "Ġpressure": 2915,
      "Ġhost": 2916,
      "ederal": 2917,
      "ĠChina": 2918,
      "Ġ189": 2919,
      "Ġlink": 2920,
      "onse": 2921,
      "Ġapproach": 2922,
      "order": 2923,
      "Ġemb": 2924,
      "orks": 2925,
      "Ġresearchers": 2926,
      "Ġpage": 2927,
      "Ġcaused": 2928,
      "Ġparents": 2929,
      "Ġestablish": 2930,
      "Ġgames": 2931,
      "Ġattack": 2932,
      "Ġnecessary": 2933,
      "Ġneeded": 2934,
      "ĠDiv": 2935,
      "irit": 2936,
      "Ġweight": 2937,
      "Ġten": 2938,
      "Ġindustry": 2939,
      "istics": 2940,
      "Ġdeep": 2941,
      "Ġdescribed": 2942,
      "Ġfru": 2943,
      "Ġunderstanding": 2944,
      "Ġmilitary": 2945,
      "Ġprovides": 2946,
      "ID": 2947,
      "Ġmicro": 2948,
      "Ġhtt": 2949,
      "Ġsex": 2950,
      "Ġgreen": 2951,
      "elling": 2952,
      "Ġbr": 2953,
      "Ġgreater": 2954,
      "ye": 2955,
      "All": 2956,
      "Ġbooks": 2957,
      "AT": 2958,
      "Ġgas": 2959,
      "ĠWhile": 2960,
      "Ġincludes": 2961,
      "rial": 2962,
      "Ġfeed": 2963,
      "roy": 2964,
      "ider": 2965,
      "Ġemer": 2966,
      "Ġbroad": 2967,
      "Ġskin": 2968,
      "where": 2969,
      "ufact": 2970,
      "ĠFrance": 2971,
      "Ġcross": 2972,
      "thern": 2973,
      "ama": 2974,
      "Ġstructure": 2975,
      "Ġpoints": 2976,
      "Ġcommit": 2977,
      "Ġactually": 2978,
      "Ġjob": 2979,
      "Ġearth": 2980,
      "levision": 2981,
      "omb": 2982,
      "Ġglobal": 2983,
      "rant": 2984,
      "Ġidea": 2985,
      "ĠCenter": 2986,
      "Ġproduce": 2987,
      "ises": 2988,
      "Ġstreng": 2989,
      "Ġfriends": 2990,
      "Ġeyes": 2991,
      "24": 2992,
      "ĠGreat": 2993,
      "Ġfilms": 2994,
      "Ġaverage": 2995,
      "Ġgave": 2996,
      "mar": 2997,
      "Ġvideo": 2998,
      "orthern": 2999,
      "ura": 3000,
      "rem": 3001,
      "Ġ2018": 3002,
      "Ġmaterials": 3003,
      "cks": 3004,
      "oles": 3005,
      "Ġmoved": 3006,
      "Ġwoman": 3007,
      "Ġinvolved": 3008,
      "Ġsubst": 3009,
      "oly": 3010,
      "Ġsense": 3011,
      "Ġsometimes": 3012,
      "Ġsoil": 3013,
      "Ġperformance": 3014,
      "Ġshown": 3015,
      "Ġexerc": 3016,
      "Ġthreat": 3017,
      "ricult": 3018,
      "alls": 3019,
      "Ġonline": 3020,
      "ĠKe": 3021,
      "itch": 3022,
      "uff": 3023,
      "Or": 3024,
      "Ġord": 3025,
      "Ġwild": 3026,
      "Ġcolor": 3027,
      "ĠGeneral": 3028,
      "ĠInstitute": 3029,
      "ĠSer": 3030,
      "rag": 3031,
      "Ġcust": 3032,
      "play": 3033,
      "osing": 3034,
      "Ġvict": 3035,
      "Ġworth": 3036,
      "inary": 3037,
      "Ġmiss": 3038,
      "Ġtravel": 3039,
      "ĠVal": 3040,
      "ply": 3041,
      "ari": 3042,
      "ĠResearch": 3043,
      "Ġrefer": 3044,
      "Ġclean": 3045,
      "Ġclub": 3046,
      "Ġstation": 3047,
      "outhern": 3048,
      "Ġtold": 3049,
      "omp": 3050,
      "Pe": 3051,
      "Ġsus": 3052,
      "joy": 3053,
      "Ġ23": 3054,
      "ĠArmy": 3055,
      "Ġessential": 3056,
      "ns": 3057,
      "itect": 3058,
      "ĠPal": 3059,
      "ĠPat": 3060,
      "ĠLa": 3061,
      "Ġwood": 3062,
      "Ġmeaning": 3063,
      "ĠGra": 3064,
      "Ġmovement": 3065,
      "Ġconsist": 3066,
      "Ġgot": 3067,
      "Ġindepend": 3068,
      "Ġ2019": 3069,
      "Ġindividuals": 3070,
      "unt": 3071,
      "off": 3072,
      "Ġalthough": 3073,
      "Ġbeg": 3074,
      "Ġsociety": 3075,
      "ĠSec": 3076,
      "Ġdeal": 3077,
      "Ġassess": 3078,
      "Ġcompanies": 3079,
      "arily": 3080,
      "ength": 3081,
      "Ġaddress": 3082,
      "ĠChristian": 3083,
      "Ġissue": 3084,
      "Ġcivil": 3085,
      "irm": 3086,
      "Ġspread": 3087,
      "Ġcomputer": 3088,
      "Ġwa": 3089,
      "pro": 3090,
      "Ġfactors": 3091,
      "Ġarri": 3092,
      "Ġsir": 3093,
      "Ġprec": 3094,
      "Ġprivate": 3095,
      "Ġund": 3096,
      "ĠDepartment": 3097,
      "Ġmedic": 3098,
      "ests": 3099,
      "fl": 3100,
      "Ġcover": 3101,
      "197": 3102,
      "band": 3103,
      "Ġgradu": 3104,
      "Ġreve": 3105,
      "Ġmid": 3106,
      "Ġ22": 3107,
      "aught": 3108,
      "Ġmach": 3109,
      "ĠScience": 3110,
      "ĠCanada": 3111,
      "Ġround": 3112,
      "ĠMich": 3113,
      "ĠMor": 3114,
      "Ġincreasing": 3115,
      "ashington": 3116,
      "Ġrecent": 3117,
      "ĠFirst": 3118,
      "iles": 3119,
      "Ġmedia": 3120,
      "Ġbehind": 3121,
      "reek": 3122,
      "ulations": 3123,
      "Ġgold": 3124,
      "astic": 3125,
      "anc": 3126,
      "Ġavoid": 3127,
      "Ġpray": 3128,
      "field": 3129,
      "ĠBra": 3130,
      "year": 3131,
      "ancy": 3132,
      "Ġwife": 3133,
      "40": 3134,
      "ares": 3135,
      "Ġcat": 3136,
      "Ġ28": 3137,
      "Ġprofessional": 3138,
      "60": 3139,
      "ĠRoman": 3140,
      "Ġmine": 3141,
      "IN": 3142,
      "Ġeat": 3143,
      "Now": 3144,
      "hy": 3145,
      "itiz": 3146,
      "Ġhealthy": 3147,
      "Ġnetwork": 3148,
      "rast": 3149,
      "Ġbrother": 3150,
      "Ġculture": 3151,
      "ĠDist": 3152,
      "Ġvariety": 3153,
      "anks": 3154,
      "Ġpattern": 3155,
      "Ġoutside": 3156,
      "Ġ40": 3157,
      "Ġacqu": 3158,
      "'re": 3159,
      "used": 3160,
      "ĠPri": 3161,
      "They": 3162,
      "Ġheat": 3163,
      "ĠAfrica": 3164,
      "isions": 3165,
      "ĠAfrican": 3166,
      "Ġmount": 3167,
      "itude": 3168,
      "Ġbirth": 3169,
      "Ġ|": 3170,
      "Then": 3171,
      "ĠÂ": 3172,
      "Your": 3173,
      "Sp": 3174,
      "ĠPort": 3175,
      "ett": 3176,
      "key": 3177,
      "Ġadded": 3178,
      "Ġfaith": 3179,
      "ĠPresident": 3180,
      "ancial": 3181,
      "back": 3182,
      "iter": 3183,
      "Ġstandard": 3184,
      "Ġhundred": 3185,
      "Ġetc": 3186,
      "ky": 3187,
      "wise": 3188,
      "Ġstyle": 3189,
      "Ġtax": 3190,
      "ĠNav": 3191,
      "fort": 3192,
      "ying": 3193,
      "Ġsafe": 3194,
      "Ġprep": 3195,
      "rief": 3196,
      "Ġprograms": 3197,
      "ams": 3198,
      "ON": 3199,
      "pite": 3200,
      "Ġtakes": 3201,
      "Ġresponse": 3202,
      "head": 3203,
      "Ġpoll": 3204,
      "Ġshare": 3205,
      "oud": 3206,
      "Ġlack": 3207,
      "ĠAustralia": 3208,
      "IS": 3209,
      "uge": 3210,
      "ĠChild": 3211,
      "Ġdeaths": 3212,
      "Ġleaders": 3213,
      "pper": 3214,
      "Ġband": 3215,
      "Ġsea": 3216,
      "After": 3217,
      "omas": 3218,
      "Ġinstit": 3219,
      "Ġcontain": 3220,
      "Ġgoal": 3221,
      "Ġmale": 3222,
      "From": 3223,
      "Ġvari": 3224,
      "ibrary": 3225,
      "Ġvisit": 3226,
      "Ġinvestig": 3227,
      "Ġnews": 3228,
      "ervation": 3229,
      "Ġvirt": 3230,
      "raw": 3231,
      "Ġinn": 3232,
      "Ġcomplete": 3233,
      "Ġ27": 3234,
      "eal": 3235,
      "Ġtarg": 3236,
      "Ġuses": 3237,
      "Ġfront": 3238,
      "ems": 3239,
      "ĠCouncil": 3240,
      "ronic": 3241,
      "Ġplaces": 3242,
      "Ġcontact": 3243,
      "ribution": 3244,
      "ĠApp": 3245,
      "Ġcauses": 3246,
      "Ġcarry": 3247,
      "rael": 3248,
      "ĠCong": 3249,
      "ĠJust": 3250,
      "ĠTown": 3251,
      "rapy": 3252,
      "Ġeye": 3253,
      "Ġeasy": 3254,
      "Ġparticularly": 3255,
      "Ġcru": 3256,
      "Ġmanufact": 3257,
      "ĠNot": 3258,
      "Ġhonor": 3259,
      "Ġstress": 3260,
      "ocr": 3261,
      "Ġwrote": 3262,
      "Ġren": 3263,
      "Ġencoura": 3264,
      "Ġfeet": 3265,
      "ĠDay": 3266,
      "Ġworked": 3267,
      "Ġinstead": 3268,
      "Ġchemical": 3269,
      "Ġharm": 3270,
      "ĠFrom": 3271,
      "Ġdanger": 3272,
      "Ġagre": 3273,
      "Ġexec": 3274,
      "haps": 3275,
      "Ġenvironmental": 3276,
      "Ġwebsite": 3277,
      "Ġtowards": 3278,
      "iff": 3279,
      "ĠArch": 3280,
      "lim": 3281,
      "Ġgenerally": 3282,
      "Ġ26": 3283,
      "ĠEduc": 3284,
      "Ġanswer": 3285,
      "Ġmechan": 3286,
      "Ġ2005": 3287,
      "Ġquickly": 3288,
      "ander": 3289,
      "One": 3290,
      "urt": 3291,
      "semb": 3292,
      "bl": 3293,
      "ij": 3294,
      "29": 3295,
      "Ġcred": 3296,
      "Ġwalk": 3297,
      "Ġleading": 3298,
      "Ġcontinued": 3299,
      "cription": 3300,
      "Ġbehavior": 3301,
      "ĠRed": 3302,
      "28": 3303,
      "ĠLady": 3304,
      "know": 3305,
      "light": 3306,
      "Ġdoub": 3307,
      "Ġchurch": 3308,
      "verse": 3309,
      "reet": 3310,
      "Ġtemperature": 3311,
      "ĠGermany": 3312,
      "Ġpolicy": 3313,
      "sec": 3314,
      "Ġadminist": 3315,
      "Ġsal": 3316,
      "cast": 3317,
      "Ġ188": 3318,
      "ĠWashington": 3319,
      "Ġearli": 3320,
      "Ġcheck": 3321,
      "27": 3322,
      "Ġversion": 3323,
      "ially": 3324,
      "airs": 3325,
      "Ġsend": 3326,
      "Ġannoun": 3327,
      "Ġcast": 3328,
      "She": 3329,
      "Ġang": 3330,
      "Ġsafety": 3331,
      "istry": 3332,
      "Ġimage": 3333,
      "rab": 3334,
      "Ġ2000": 3335,
      "Ġimmedi": 3336,
      "ĠBer": 3337,
      "igned": 3338,
      "yond": 3339,
      "arden": 3340,
      "ĠMex": 3341,
      "ouch": 3342,
      "Ġprimary": 3343,
      "Ġoffer": 3344,
      "ixed": 3345,
      "Le": 3346,
      "Ġpurpose": 3347,
      "ension": 3348,
      "icip": 3349,
      "su": 3350,
      "Ġdoing": 3351,
      "Ġden": 3352,
      "Ġactive": 3353,
      "ĠAssociation": 3354,
      "hest": 3355,
      "Ġpsych": 3356,
      "Ġaud": 3357,
      "Ġforest": 3358,
      "isl": 3359,
      "ki": 3360,
      "Ġspeed": 3361,
      "imum": 3362,
      "Ġdocument": 3363,
      "Ġcontinue": 3364,
      "Ġinteg": 3365,
      "Ġbeaut": 3366,
      "Ġelectric": 3367,
      "Ġfeature": 3368,
      "idents": 3369,
      "ĠInt": 3370,
      "ĠDis": 3371,
      "Ġfast": 3372,
      "Ġserious": 3373,
      "Ġ:": 3374,
      "Ã¼": 3375,
      "room": 3376,
      "Ġmethods": 3377,
      "atively": 3378,
      "Ġhot": 3379,
      "Ġdrink": 3380,
      ");": 3381,
      "Ġful": 3382,
      "Ġking": 3383,
      "craft": 3384,
      "inese": 3385,
      "uous": 3386,
      "Ġwid": 3387,
      "Ġsources": 3388,
      "Ġenjoy": 3389,
      "which": 3390,
      "AN": 3391,
      "omet": 3392,
      "Ġdamage": 3393,
      "Ġdiagn": 3394,
      "ĠRepublic": 3395,
      "ĠPress": 3396,
      "arian": 3397,
      "enty": 3398,
      "oice": 3399,
      "Ġimplement": 3400,
      "lied": 3401,
      "Ġforms": 3402,
      "aste": 3403,
      "ĠHistory": 3404,
      "inated": 3405,
      "ĠDon": 3406,
      "Ġfort": 3407,
      "Ġfeatures": 3408,
      "Ġtransport": 3409,
      "Ġpict": 3410,
      "Ġbenefits": 3411,
      "26": 3412,
      "ĠDuring": 3413,
      "time": 3414,
      "Ġ2020": 3415,
      "Ġlog": 3416,
      "Ġdaily": 3417,
      "Ġfollowed": 3418,
      "ĠFin": 3419,
      "Ġhous": 3420,
      "ĠHum": 3421,
      "ĠJames": 3422,
      "aven": 3423,
      "Ġresist": 3424,
      "Ġpositive": 3425,
      "Ġquite": 3426,
      "yp": 3427,
      "aign": 3428,
      "Ġ2004": 3429,
      "Ġtraditional": 3430,
      "Ġbeginning": 3431,
      "bert": 3432,
      "ĠSim": 3433,
      "Ġstage": 3434,
      "ĠChampions": 3435,
      "Ġcontribut": 3436,
      "Ġsimply": 3437,
      "see": 3438,
      "Ġdemonst": 3439,
      "Ġclos": 3440,
      "ĠRec": 3441,
      "Ġcentral": 3442,
      "Ġbad": 3443,
      "Ġalone": 3444,
      "Ġmess": 3445,
      "ĠCompany": 3446,
      "Ġpromot": 3447,
      "Ġder": 3448,
      "Ġcourt": 3449,
      "Pl": 3450,
      "ÃŃ": 3451,
      "Ġmonth": 3452,
      "ĠMore": 3453,
      "lor": 3454,
      "Ġwrite": 3455,
      "ship": 3456,
      "Ġgrowing": 3457,
      "odes": 3458,
      "ception": 3459,
      "Ġneigh": 3460,
      "oring": 3461,
      "ville": 3462,
      "Ġhar": 3463,
      "Ġadditional": 3464,
      "Ġsust": 3465,
      "Ġtitle": 3466,
      "ĠMary": 3467,
      "Ġmeas": 3468,
      "Ġessay": 3469,
      "Eng": 3470,
      "Ġdark": 3471,
      "Ġattention": 3472,
      "ĠBr": 3473,
      "ucle": 3474,
      "Ġeasily": 3475,
      "aled": 3476,
      "Ġnumbers": 3477,
      "ula": 3478,
      "ĠUnion": 3479,
      "Ġnar": 3480,
      "Ġrock": 3481,
      "ĠLet": 3482,
      "ĠSociety": 3483,
      "ĠUs": 3484,
      "ĠBel": 3485,
      "Ġ...": 3486,
      "Ġir": 3487,
      "II": 3488,
      "Ġchalleng": 3489,
      "Ġsweet": 3490,
      "Ġwide": 3491,
      "onder": 3492,
      "Ġtree": 3493,
      "ĠCO": 3494,
      "Let": 3495,
      "ĠYour": 3496,
      "fess": 3497,
      "ros": 3498,
      "ĠMost": 3499,
      "hens": 3500,
      "Ġtrack": 3501,
      "vention": 3502,
      "oys": 3503,
      "Ġmagn": 3504,
      "alled": 3505,
      "Ġnovel": 3506,
      "ida": 3507,
      "ya": 3508,
      "Ġcontains": 3509,
      "ĠMany": 3510,
      "Ġlargest": 3511,
      "ternet": 3512,
      "Ad": 3513,
      "ĠChe": 3514,
      "Ġhelps": 3515,
      "ĠPaul": 3516,
      "Ġpeace": 3517,
      "Ġcold": 3518,
      "Ġpresident": 3519,
      "ears": 3520,
      "Ġidentify": 3521,
      "ston": 3522,
      "Ġfill": 3523,
      "ĠRober": 3524,
      "ĠCup": 3525,
      "Ġextra": 3526,
      "Ġreturned": 3527,
      "ken": 3528,
      "Ġcapital": 3529,
      "ĠMr": 3530,
      "Ġestim": 3531,
      "oming": 3532,
      "ager": 3533,
      "Ġcarbon": 3534,
      "ĠGeorge": 3535,
      "uries": 3536,
      "Ġforces": 3537,
      "ospital": 3538,
      "ĠCommun": 3539,
      "ĠBlack": 3540,
      "Ġlength": 3541,
      "Ġimages": 3542,
      "Ġconstruction": 3543,
      "ech": 3544,
      "Ġbal": 3545,
      "ĠJes": 3546,
      "Ġtransl": 3547,
      "Ġdire": 3548,
      "cean": 3549,
      "ĠTur": 3550,
      "Ġstar": 3551,
      "Ġmultiple": 3552,
      "ties": 3553,
      "Ġcompon": 3554,
      "Ġbacter": 3555,
      "Ġoffice": 3556,
      "Ġnormal": 3557,
      "ago": 3558,
      "bit": 3559,
      "Ġminutes": 3560,
      "Ġtheory": 3561,
      "resh": 3562,
      "ĠLou": 3563,
      "Ġensure": 3564,
      "ĠRich": 3565,
      "AC": 3566,
      "uke": 3567,
      "Ġtelevision": 3568,
      "abet": 3569,
      "Ġcontract": 3570,
      "ĠFather": 3571,
      "tee": 3572,
      "mercial": 3573,
      "Ġhyd": 3574,
      "Ġsecurity": 3575,
      "Ġscientists": 3576,
      "Se": 3577,
      "Ġaim": 3578,
      "Ġprior": 3579,
      "Ġbreat": 3580,
      "Ġdry": 3581,
      "mission": 3582,
      "Ġcou": 3583,
      "olar": 3584,
      "ĠIsrael": 3585,
      "Ġformed": 3586,
      "ka": 3587,
      "Ġcommunities": 3588,
      "Ġsection": 3589,
      "Ġseek": 3590,
      "Ġmarried": 3591,
      "Ġrich": 3592,
      "asion": 3593,
      "eleb": 3594,
      "Ġlabor": 3595,
      "Pro": 3596,
      "Ġstru": 3597,
      "Ġparty": 3598,
      "Ġship": 3599,
      "Ġfinancial": 3600,
      "ret": 3601,
      "www": 3602,
      "Ġlaun": 3603,
      "Ġhighly": 3604,
      "Ġseems": 3605,
      "Ġ186": 3606,
      "ĠOf": 3607,
      "ĠMal": 3608,
      "ael": 3609,
      "Ġwit": 3610,
      "Ġaltern": 3611,
      "enge": 3612,
      "Ġmag": 3613,
      "Ġdirectly": 3614,
      "Ġdegree": 3615,
      "Ġ187": 3616,
      "Ġprobably": 3617,
      "leg": 3618,
      "Ġslow": 3619,
      "izations": 3620,
      "Ġwrong": 3621,
      "ĠSun": 3622,
      "Ġwarm": 3623,
      "ĠTrans": 3624,
      "Ġtrust": 3625,
      "Ġremain": 3626,
      "Ġveh": 3627,
      "Ġplaced": 3628,
      "Ġpatient": 3629,
      "Ġpurch": 3630,
      "Ġdeveloping": 3631,
      "Ġcompared": 3632,
      "Ġtrade": 3633,
      "Ġ2021": 3634,
      "Ġbasic": 3635,
      "ĠRoyal": 3636,
      "alian": 3637,
      "Ind": 3638,
      "ĠIsland": 3639,
      "ĠOther": 3640,
      "Ġlarger": 3641,
      "ĠMil": 3642,
      "Ġemot": 3643,
      "Ġcustom": 3644,
      "ste": 3645,
      "People": 3646,
      "gency": 3647,
      "Ġprotein": 3648,
      "Ġlif": 3649,
      "Ġpen": 3650,
      "Ġec": 3651,
      "inct": 3652,
      "Ġeth": 3653,
      "Ġreceive": 3654,
      "ĠSl": 3655,
      "that": 3656,
      "cles": 3657,
      "Ġconcent": 3658,
      "Ġinside": 3659,
      "Ġqual": 3660,
      "Ġrare": 3661,
      "Ġallows": 3662,
      "ĠDem": 3663,
      "ĠAp": 3664,
      "Ġvoc": 3665,
      "ulated": 3666,
      "Ġgetting": 3667,
      "Ġseven": 3668,
      "Ġaware": 3669,
      "Cl": 3670,
      "Ġleaves": 3671,
      "Ġdefin": 3672,
      "ĠCath": 3673,
      "These": 3674,
      "Ġanimal": 3675,
      "Ġmention": 3676,
      "Ġrelease": 3677,
      "Ġplease": 3678,
      "Ġroad": 3679,
      "Ġsupply": 3680,
      "ĠMart": 3681,
      "Ġmatch": 3682,
      "rack": 3683,
      "ding": 3684,
      "ĠPrince": 3685,
      "Ġancient": 3686,
      "ĠParty": 3687,
      "Ġachieve": 3688,
      "Ġserve": 3689,
      "Ġ29": 3690,
      "Ġarchitect": 3691,
      "ĠMiss": 3692,
      "Ġdecision": 3693,
      "ĠNet": 3694,
      "ĠJe": 3695,
      "wood": 3696,
      "ĠPeople": 3697,
      "Ġlands": 3698,
      "Ġdemand": 3699,
      "ĠHere": 3700,
      "ĠDavid": 3701,
      "Ġdecre": 3702,
      "liament": 3703,
      "era": 3704,
      "Ġcomplet": 3705,
      "Ġdifference": 3706,
      "ĠVol": 3707,
      "Ġcenter": 3708,
      "Ġreligious": 3709,
      "Ġvirus": 3710,
      "ĠSen": 3711,
      "OR": 3712,
      "Ġfram": 3713,
      "Ġvacc": 3714,
      "ĠMuseum": 3715,
      "ĠSea": 3716,
      "Ġblock": 3717,
      "Ġox": 3718,
      "Ġbab": 3719,
      "water": 3720,
      "ician": 3721,
      "Ġlimited": 3722,
      "Ġhabit": 3723,
      "Ġplayer": 3724,
      "Ġtrees": 3725,
      "Ġsearch": 3726,
      "Ġcorrect": 3727,
      "Ġdestroy": 3728,
      "Ġheard": 3729,
      "Ġlooking": 3730,
      "van": 3731,
      "vert": 3732,
      "Ġveget": 3733,
      "Ġcoming": 3734,
      "itz": 3735,
      "Ġconstit": 3736,
      "Ġperformed": 3737,
      "ĠHen": 3738,
      "Here": 3739,
      "Ġstra": 3740,
      "aur": 3741,
      "riage": 3742,
      "aine": 3743,
      "Ġbit": 3744,
      "Ġideas": 3745,
      "Ġsummer": 3746,
      "ellig": 3747,
      "Ġteachers": 3748,
      "Ġkilled": 3749,
      "odies": 3750,
      "ĠChinese": 3751,
      "rey": 3752,
      "New": 3753,
      "Ġcoast": 3754,
      "lymp": 3755,
      "Ġreach": 3756,
      "Ġcollect": 3757,
      "Ġeight": 3758,
      "pid": 3759,
      "ĠWestern": 3760,
      "iques": 3761,
      "Ġago": 3762,
      "ocks": 3763,
      "atin": 3764,
      "Ġcritical": 3765,
      "Ġdistrict": 3766,
      "Ġrelationship": 3767,
      "Ġsevere": 3768,
      "Ġfoods": 3769,
      "Oh": 3770,
      "Ġweeks": 3771,
      "ĠNor": 3772,
      "Ġsn": 3773,
      "Ġsch": 3774,
      "ulate": 3775,
      "iency": 3776,
      "IC": 3777,
      "known": 3778,
      "ĠAlthough": 3779,
      "icians": 3780,
      "Some": 3781,
      "Ġvillage": 3782,
      "ointed": 3783,
      "ĠSub": 3784,
      "Ġgives": 3785,
      "gn": 3786,
      "Ġelements": 3787,
      "Ġfamilies": 3788,
      "Ġroom": 3789,
      "uild": 3790,
      "erg": 3791,
      "Ġcry": 3792,
      "ĠMount": 3793,
      "ĠLife": 3794,
      "Ġmom": 3795,
      "Ġadop": 3796,
      "ĠSum": 3797,
      "reme": 3798,
      "osure": 3799,
      "ĠTechn": 3800,
      "ĠSal": 3801,
      "ĠUK": 3802,
      "Ġnation": 3803,
      "Ġproperty": 3804,
      "Ġlines": 3805,
      "iot": 3806,
      "atur": 3807,
      "Ġprogress": 3808,
      "pped": 3809,
      "Ġinfluence": 3810,
      "Ġscientific": 3811,
      "Ġ2003": 3812,
      "Ġpan": 3813,
      "Ġcand": 3814,
      "Ġcurrently": 3815,
      "Ġcollection": 3816,
      "aling": 3817,
      "uty": 3818,
      "usband": 3819,
      "Ġadapt": 3820,
      "Ġquant": 3821,
      "ingu": 3822,
      "Ġspirit": 3823,
      "ĠVirgin": 3824,
      "Ġbound": 3825,
      "ĠEducation": 3826,
      "Ġmiles": 3827,
      "Ġcolon": 3828,
      "Ġspend": 3829,
      "Ġremains": 3830,
      "ĠHon": 3831,
      "Ġdetermine": 3832,
      "Ġmiddle": 3833,
      "Ġenter": 3834,
      "Ġprin": 3835,
      "oma": 3836,
      "erous": 3837,
      "Ġtools": 3838,
      "Ġaspect": 3839,
      "can": 3840,
      "Ġacid": 3841,
      "mitted": 3842,
      "Ġinform": 3843,
      "Ġdiseases": 3844,
      "Ġvia": 3845,
      "vest": 3846,
      "Ġstaff": 3847,
      "Ġsurround": 3848,
      "Ġbuildings": 3849,
      "ĠGreen": 3850,
      "Ġtrou": 3851,
      "Do": 3852,
      "Ġcompleted": 3853,
      "Ġcitiz": 3854,
      "ĠProg": 3855,
      "ĠGentle": 3856,
      "uments": 3857,
      "Ph": 3858,
      "Ġjoined": 3859,
      "Ġtill": 3860,
      "cape": 3861,
      "Ġdoesn": 3862,
      "ĠRel": 3863,
      "IV": 3864,
      "Ġbeyond": 3865,
      "ĠMat": 3866,
      "ĠMer": 3867,
      "more": 3868,
      "Ġtable": 3869,
      "och": 3870,
      "Ġrob": 3871,
      "Ġquar": 3872,
      "Ġcard": 3873,
      "Ġsuccessful": 3874,
      "Ġtarget": 3875,
      "Ġceleb": 3876,
      "itable": 3877,
      "ĠProv": 3878,
      "Ġhttp": 3879,
      "Ġeval": 3880,
      "ĠRet": 3881,
      "Ġtransfer": 3882,
      "Ġones": 3883,
      "196": 3884,
      "Ġadj": 3885,
      "ĠAcadem": 3886,
      "Ġtruth": 3887,
      "ĠOff": 3888,
      "Ġjournal": 3889,
      "ĠÃ": 3890,
      "Ġdie": 3891,
      "rees": 3892,
      "ĠAccording": 3893,
      "ĠMod": 3894,
      "cript": 3895,
      "ĠWomen": 3896,
      "Ġice": 3897,
      "burg": 3898,
      "Ġnames": 3899,
      "lam": 3900,
      "ĠTex": 3901,
      "ĠGold": 3902,
      "EN": 3903,
      "Ġdirector": 3904,
      "Ġorganization": 3905,
      "Ġbecomes": 3906,
      "ĠNow": 3907,
      "Ġapprox": 3908,
      "Ġallowed": 3909,
      "Ġwaste": 3910,
      "Ġrail": 3911,
      "Ġinstrum": 3912,
      "vant": 3913,
      "BC": 3914,
      "Ġapprop": 3915,
      "Ġmental": 3916,
      "Ġdate": 3917,
      "ĠAre": 3918,
      "Ġfavor": 3919,
      "Ġunique": 3920,
      "ĠFore": 3921,
      "Ġvot": 3922,
      "Ġdoctor": 3923,
      "His": 3924,
      "Con": 3925,
      "Ġtro": 3926,
      "Ġx": 3927,
      "Ġhop": 3928,
      "Ġworkers": 3929,
      "Ġrise": 3930,
      "Ġ2001": 3931,
      "Ġ1990": 3932,
      "Ġhumans": 3933,
      "ios": 3934,
      "Ġsomeone": 3935,
      "Ġaward": 3936,
      "Ġadvant": 3937,
      "Ġcapac": 3938,
      "Ġoccup": 3939,
      "Ġsoftware": 3940,
      "berg": 3941,
      "Ġteaching": 3942,
      "house": 3943,
      "ĠMark": 3944,
      "tained": 3945,
      "ĠCongress": 3946,
      "Ġsem": 3947,
      "Ġdaughter": 3948,
      "Ġgoes": 3949,
      "ĠDivision": 3950,
      "Ġanti": 3951,
      "Ġrace": 3952,
      "aker": 3953,
      "Ġchanged": 3954,
      "ĠStreet": 3955,
      "Ġmemory": 3956,
      "aters": 3957,
      "ria": 3958,
      "Ġmur": 3959,
      "inn": 3960,
      "ero": 3961,
      "Ġgrant": 3962,
      "ĠPublic": 3963,
      "edom": 3964,
      "nel": 3965,
      "ĠBay": 3966,
      "Ġanaly": 3967,
      "bour": 3968,
      "Ġkids": 3969,
      "ĠFort": 3970,
      "Ġpack": 3971,
      "Ġsett": 3972,
      "Ġmill": 3973,
      "Ġasked": 3974,
      "Ġgone": 3975,
      "Ġexhib": 3976,
      "Ġinfection": 3977,
      "Ġoverall": 3978,
      "Ġrecorded": 3979,
      "Ġlegal": 3980,
      "iar": 3981,
      "Ġsoul": 3982,
      "Ġtiss": 3983,
      "Ġconne": 3984,
      "Ġagricult": 3985,
      "Ġpun": 3986,
      "ux": 3987,
      "Ġpow": 3988,
      "Ġsequ": 3989,
      "izes": 3990,
      "Ġimpl": 3991,
      "Ġreb": 3992,
      "ĠKingdom": 3993,
      "Ġprojects": 3994,
      "Which": 3995,
      "ĠJournal": 3996,
      "Ġnone": 3997,
      "omy": 3998,
      "Ġboard": 3999,
      "Ġcultural": 4000,
      "Ġgirl": 4001,
      "Ġult": 4002,
      "za": 4003,
      "Ġexpected": 4004,
      "olved": 4005,
      "Ġclin": 4006,
      "pon": 4007,
      "issions": 4008,
      "Ġvit": 4009,
      "part": 4010,
      "cis": 4011,
      "gra": 4012,
      "ĠJapanese": 4013,
      "Ġfemale": 4014,
      "ped": 4015,
      "iring": 4016,
      "iance": 4017,
      "Ġpresence": 4018,
      "ĠLand": 4019,
      "Ġ2002": 4020,
      "Ġproced": 4021,
      "Ġacadem": 4022,
      "Ġprotection": 4023,
      "ĠThomas": 4024,
      "Ġscreen": 4025,
      "ona": 4026,
      "term": 4027,
      "utch": 4028,
      "isms": 4029,
      "à¤": 4030,
      "Ġexact": 4031,
      "ĠRev": 4032,
      "ading": 4033,
      "Ġphil": 4034,
      "TC": 4035,
      "isf": 4036,
      "Ġcommercial": 4037,
      "=\"": 4038,
      "estic": 4039,
      "eding": 4040,
      "ĠDev": 4041,
      "actions": 4042,
      "Ġnearly": 4043,
      "Ġsituation": 4044,
      "Ġelection": 4045,
      "ixt": 4046,
      "Ġ60": 4047,
      "imal": 4048,
      "Ġefforts": 4049,
      "Ġsave": 4050,
      "ado": 4051,
      "Ġsecret": 4052,
      "Ġlocation": 4053,
      "lection": 4054,
      "Ġdetect": 4055,
      "Ġbed": 4056,
      "Ġexercise": 4057,
      "Ġteacher": 4058,
      "Ear": 4059,
      "rian": 4060,
      "Ġvalues": 4061,
      "35": 4062,
      "rupt": 4063,
      "Ġannounced": 4064,
      "Ġsac": 4065,
      "ĠSpanish": 4066,
      "was": 4067,
      "Ġeventually": 4068,
      "ĠBi": 4069,
      "Ġapplication": 4070,
      "Ġcampaign": 4071,
      "ena": 4072,
      "Ġarm": 4073,
      "ek": 4074,
      "Ġast": 4075,
      "ĠWater": 4076,
      "ribute": 4077,
      "ĠJer": 4078,
      "change": 4079,
      "ĠInter": 4080,
      "Living": 4081,
      "Ġunto": 4082,
      "ipment": 4083,
      "ĠSpe": 4084,
      "Where": 4085,
      "ender": 4086,
      "ĠDistrict": 4087,
      "itis": 4088,
      "uted": 4089,
      "nce": 4090,
      "ĠHall": 4091,
      "Ġcarried": 4092,
      "ĠOh": 4093,
      "iant": 4094,
      "Ġearlier": 4095,
      "orders": 4096,
      "Ġperfect": 4097,
      "gypt": 4098,
      "orial": 4099,
      "Ġtoward": 4100,
      "ĠSam": 4101,
      "rates": 4102,
      "overy": 4103,
      "Ġstrateg": 4104,
      "While": 4105,
      "inate": 4106,
      "Ġcharge": 4107,
      "Ġthinking": 4108,
      "Ã¶": 4109,
      "Ġresponsible": 4110,
      "Who": 4111,
      "bre": 4112,
      "Ġdefe": 4113,
      "Ġrunning": 4114,
      "ĠEmp": 4115,
      "Ġready": 4116,
      "80": 4117,
      "Ġsymb": 4118,
      "ĠTexas": 4119,
      "ny": 4120,
      "Ġbasis": 4121,
      "45": 4122,
      "cause": 4123,
      "Ġuseful": 4124,
      "Ġchoose": 4125,
      "Ġweb": 4126,
      "Ġbott": 4127,
      "ĠVict": 4128,
      "Ġforward": 4129,
      "Ġlived": 4130,
      "History": 4131,
      "ĠMaster": 4132,
      "rans": 4133,
      "Ġopened": 4134,
      "Ġpet": 4135,
      "Ġdiscovered": 4136,
      "life": 4137,
      "Ġextrem": 4138,
      "ĠOp": 4139,
      "Ġsolar": 4140,
      "uit": 4141,
      "Ġgoals": 4142,
      "ĠCentral": 4143,
      "IT": 4144,
      "âĢ¢": 4145,
      "porary": 4146,
      "board": 4147,
      "ĠQueen": 4148,
      "edy": 4149,
      "set": 4150,
      "Ġimag": 4151,
      "Ġautom": 4152,
      "Ġtour": 4153,
      "Can": 4154,
      "acters": 4155,
      "Ġfruit": 4156,
      "Ġdram": 4157,
      "iful": 4158,
      "ĠJesus": 4159,
      "Ġcollege": 4160,
      "Ġmist": 4161,
      "Ġattend": 4162,
      "ras": 4163,
      "Ġshape": 4164,
      "Ġappeared": 4165,
      "utive": 4166,
      "Ġpassed": 4167,
      "Ġfamous": 4168,
      "eles": 4169,
      "ĠLouis": 4170,
      "cious": 4171,
      "Ġsites": 4172,
      "equ": 4173,
      "ĠRobert": 4174,
      "Ġradio": 4175,
      "ĠOur": 4176,
      "ĠSur": 4177,
      "Ġwest": 4178,
      "sect": 4179,
      "ologies": 4180,
      "Ġrequires": 4181,
      "Ġdisplay": 4182,
      "ault": 4183,
      "ĠIr": 4184,
      "ogen": 4185,
      "ĠMet": 4186,
      "Ġconstant": 4187,
      "uing": 4188,
      "ĠDevelop": 4189,
      "Ġimportance": 4190,
      "Ġreasons": 4191,
      "|-": 4192,
      "ĠFound": 4193,
      "Te": 4194,
      "Ġpiece": 4195,
      "Ġrule": 4196,
      "esty": 4197,
      "apter": 4198,
      "wide": 4199,
      "ĠGovernment": 4200,
      "udd": 4201,
      "Ġconflic": 4202,
      "Go": 4203,
      "Ġplaying": 4204,
      "Ġfederal": 4205,
      "ĠInst": 4206,
      "urban": 4207,
      "hi": 4208,
      "Ġnucle": 4209,
      "ĠSystem": 4210,
      "rin": 4211,
      "unk": 4212,
      "book": 4213,
      "Ġmission": 4214,
      "Ġcommonly": 4215,
      "oration": 4216,
      "Ġtypically": 4217,
      "Ġhighest": 4218,
      "Ġappears": 4219,
      "astern": 4220,
      "Ġintroduced": 4221,
      "ĠWhite": 4222,
      "uer": 4223,
      "ĠThen": 4224,
      "Ġepis": 4225,
      "EC": 4226,
      "iate": 4227,
      "ilm": 4228,
      "ĠAward": 4229,
      "Ġopportunity": 4230,
      "west": 4231,
      "ĠGroup": 4232,
      "Ġeast": 4233,
      "Ġspent": 4234,
      "enth": 4235,
      "Ġur": 4236,
      "ications": 4237,
      "ĠMadam": 4238,
      "Ġsustain": 4239,
      "Ġ#": 4240,
      "Ġcreating": 4241,
      "ĠCommission": 4242,
      "rative": 4243,
      "ugh": 4244,
      "Ġrapid": 4245,
      "ĠMen": 4246,
      "Ġball": 4247,
      "iny": 4248,
      "ĠMac": 4249,
      "Ġcosts": 4250,
      "Ġinfl": 4251,
      "Ġcollabor": 4252,
      "ĠFe": 4253,
      "Ġsports": 4254,
      "Ġbelong": 4255,
      "Ġmaintain": 4256,
      "Ġmajority": 4257,
      "ĠService": 4258,
      "Ġchoice": 4259,
      "Ġindeed": 4260,
      "cont": 4261,
      "ii": 4262,
      "Ġheavy": 4263,
      "Ġfresh": 4264,
      "abetes": 4265,
      "oute": 4266,
      "Ġstrength": 4267,
      "Ġrates": 4268,
      "oo": 4269,
      "Ġrespond": 4270,
      "ĠSince": 4271,
      "col": 4272,
      "osoph": 4273,
      "icated": 4274,
      "ĠCapt": 4275,
      "ĠFlor": 4276,
      "Ġmaster": 4277,
      "Ġcateg": 4278,
      "ota": 4279,
      "yd": 4280,
      "Ġtechniques": 4281,
      "Ġchief": 4282,
      "Ġturned": 4283,
      "Ġstatus": 4284,
      "Ġcool": 4285,
      "gu": 4286,
      "Ġcorn": 4287,
      "Ġrules": 4288,
      "Ġsmaller": 4289,
      "Ġproviding": 4290,
      "Ġcontext": 4291,
      "ĠAustralian": 4292,
      "Ġmouth": 4293,
      "Ġremember": 4294,
      "Ġequipment": 4295,
      "idel": 4296,
      "Ġinsp": 4297,
      "Ġperhaps": 4298,
      "orpor": 4299,
      "Ġbul": 4300,
      "Ġexpress": 4301,
      "Ġprocesses": 4302,
      "iat": 4303,
      "Ġhit": 4304,
      "Our": 4305,
      "ĠIS": 4306,
      "Will": 4307,
      "lig": 4308,
      "Ġfine": 4309,
      "195": 4310,
      "hemat": 4311,
      "Äģ": 4312,
      "Ġrepe": 4313,
      "ĠCarol": 4314,
      "Ġcontroll": 4315,
      "Ġforeign": 4316,
      "ED": 4317,
      "apers": 4318,
      "ibly": 4319,
      "Ġequal": 4320,
      "urning": 4321,
      "Yes": 4322,
      "ĠCur": 4323,
      "Ġpresented": 4324,
      "PA": 4325,
      "Ġtouch": 4326,
      "Ġhair": 4327,
      "Ġmodels": 4328,
      "Ġbox": 4329,
      "Ne": 4330,
      "rogen": 4331,
      "ĠPet": 4332,
      "Ġkept": 4333,
      "Ġsigned": 4334,
      "erved": 4335,
      "ĠTheir": 4336,
      "ias": 4337,
      "Ġriver": 4338,
      "road": 4339,
      "Ġdigital": 4340,
      "Ġthousand": 4341,
      "Ġmole": 4342,
      "ĠMont": 4343,
      "des": 4344,
      "ĠMag": 4345,
      "Ġgod": 4346,
      "Ġhour": 4347,
      "clus": 4348,
      "Ġolder": 4349,
      "Ġoperations": 4350,
      "Ġappointed": 4351,
      "Ġfif": 4352,
      "antic": 4353,
      "Ġsolution": 4354,
      "Ġhistorical": 4355,
      "Ġinterpre": 4356,
      "Ġbelieved": 4357,
      "ĠMexico": 4358,
      "Ġmal": 4359,
      "Ġcommunication": 4360,
      "Ġwinter": 4361,
      "Ġ^": 4362,
      "Ġweather": 4363,
      "ĠMa": 4364,
      "ĠMass": 4365,
      "Ġaffected": 4366,
      "ada": 4367,
      "Ġpick": 4368,
      "ĠList": 4369,
      "Ġ1999": 4370,
      "rison": 4371,
      "Ġdistance": 4372,
      "rows": 4373,
      "Ġrecently": 4374,
      "edia": 4375,
      "ĠCatholic": 4376,
      "Ġunit": 4377,
      "ĠMusic": 4378,
      "ĠAmericans": 4379,
      "Ġapplications": 4380,
      "Ġweak": 4381,
      "oves": 4382,
      "Ġactions": 4383,
      "Ġsen": 4384,
      "Ġforced": 4385,
      "ĠCharles": 4386,
      "Res": 4387,
      "ĠKore": 4388,
      "Ġvisual": 4389,
      "zy": 4390,
      "Ġbenefit": 4391,
      "Sc": 4392,
      "ously": 4393,
      "ĠRussian": 4394,
      "Ġpossess": 4395,
      "ĠCanadian": 4396,
      "Ġegg": 4397,
      "Ġfuel": 4398,
      "Ġbear": 4399,
      "encies": 4400,
      "Ġlaws": 4401,
      "SA": 4402,
      "Ġconsequ": 4403,
      "resp": 4404,
      "Ġdevices": 4405,
      "Ġconstruct": 4406,
      "Ġtesting": 4407,
      "ĠJud": 4408,
      "Ġmax": 4409,
      "Ġconv": 4410,
      "oviet": 4411,
      "coh": 4412,
      "erate": 4413,
      "Ġcities": 4414,
      "Ġprison": 4415,
      "Ġexpand": 4416,
      "37": 4417,
      "Ġtests": 4418,
      "bed": 4419,
      "ĠKn": 4420,
      "Ġbran": 4421,
      "Ġreduced": 4422,
      "ishing": 4423,
      "Sir": 4424,
      "Ġadults": 4425,
      "ĠParis": 4426,
      "ato": 4427,
      "Ġteeth": 4428,
      "sey": 4429,
      "Ġnegative": 4430,
      "rical": 4431,
      "gal": 4432,
      "ĠAv": 4433,
      "cend": 4434,
      "ĠSecond": 4435,
      "Ġbank": 4436,
      "Ġbreast": 4437,
      "Ġbes": 4438,
      "Ġyouth": 4439,
      "Ġshowed": 4440,
      "reland": 4441,
      "Ġtool": 4442,
      "ĠIts": 4443,
      "uz": 4444,
      "Ġnative": 4445,
      "Ġteach": 4446,
      "âĢĿ.": 4447,
      "Ġapproximately": 4448,
      "Ġexcept": 4449,
      "Ġdevice": 4450,
      "CA": 4451,
      "Ġcrop": 4452,
      "ĠHistor": 4453,
      "Ġstories": 4454,
      "Ġhom": 4455,
      "ĠOlymp": 4456,
      "ĠJewish": 4457,
      "Ġconvers": 4458,
      "ini": 4459,
      "Ġgiving": 4460,
      "Ġstore": 4461,
      "Ġpowerful": 4462,
      "ga": 4463,
      "ĠAlex": 4464,
      "Ġcharacters": 4465,
      "Ġillust": 4466,
      "Ġexamples": 4467,
      "Ġeffort": 4468,
      "ube": 4469,
      "Ġhappy": 4470,
      "Ġreached": 4471,
      "ĠHol": 4472,
      "rd": 4473,
      "ĠBre": 4474,
      "gl": 4475,
      "Ġfounded": 4476,
      "oday": 4477,
      "Ġscale": 4478,
      "Ġexperien": 4479,
      "ola": 4480,
      "ses": 4481,
      "Ġremained": 4482,
      "ĠUnder": 4483,
      "icate": 4484,
      "38": 4485,
      "ĠFriend": 4486,
      "ections": 4487,
      "Ġidentified": 4488,
      "ctors": 4489,
      "Ġmoving": 4490,
      "ĠEgypt": 4491,
      "anned": 4492,
      "elled": 4493,
      "ĠTer": 4494,
      "Ġgain": 4495,
      "Ġnoted": 4496,
      "36": 4497,
      "Ġdivid": 4498,
      "Ġ1980": 4499,
      "Ġrat": 4500,
      "Ġspring": 4501,
      "Ġcapacity": 4502,
      "inger": 4503,
      "Ġvs": 4504,
      "ĠJose": 4505,
      "ĠOld": 4506,
      "ĠAcademy": 4507,
      "Ġstructures": 4508,
      "ishop": 4509,
      "Ġletter": 4510,
      "ĠSmith": 4511,
      "mark": 4512,
      "Ġimmediately": 4513,
      "force": 4514,
      "sembly": 4515,
      "Ġble": 4516,
      "Ġminor": 4517,
      "Ġthoughts": 4518,
      "Ġteams": 4519,
      "Ġfully": 4520,
      "Ġrout": 4521,
      "ey": 4522,
      "no": 4523,
      "ĠRad": 4524,
      "48": 4525,
      "Ġtherapy": 4526,
      "ĠDirect": 4527,
      "Ġmanner": 4528,
      "Ġcompletely": 4529,
      "ĠGrand": 4530,
      "ĠEven": 4531,
      "ĠSon": 4532,
      "Ġbecoming": 4533,
      "Ġappropriate": 4534,
      "Ġsitu": 4535,
      "ĠCast": 4536,
      "Ġorganizations": 4537,
      "ĠLear": 4538,
      "alse": 4539,
      "Ġprice": 4540,
      "Ġstrugg": 4541,
      "Ġcode": 4542,
      "fered": 4543,
      "iated": 4544,
      "Ġeconomy": 4545,
      "Ġhyp": 4546,
      "win": 4547,
      "Ġoffers": 4548,
      "olit": 4549,
      "Ġded": 4550,
      "Ġgun": 4551,
      "ĠImp": 4552,
      "Ġopin": 4553,
      "ogue": 4554,
      "isher": 4555,
      "Ġmob": 4556,
      "Ġmut": 4557,
      "spe": 4558,
      "Ġelected": 4559,
      "ĠFrancis": 4560,
      "Ġbacteria": 4561,
      "Ġsurg": 4562,
      "Ġrot": 4563,
      "Ġrain": 4564,
      "Ġreflect": 4565,
      "39": 4566,
      "ĠAlso": 4567,
      "Ġobjects": 4568,
      "va": 4569,
      "Ġpractices": 4570,
      "clusion": 4571,
      "Ġdecided": 4572,
      "isation": 4573,
      "Ġsongs": 4574,
      "Ġbattle": 4575,
      "ĠItalian": 4576,
      "Ġmeeting": 4577,
      "ĠTor": 4578,
      "ĠSk": 4579,
      "Ġcitizens": 4580,
      "ĠTwo": 4581,
      "lies": 4582,
      "Ġmonitor": 4583,
      "Ġalt": 4584,
      "rich": 4585,
      "writ": 4586,
      "ĠGood": 4587,
      "Ġnumerous": 4588,
      "Ġbehavi": 4589,
      "atform": 4590,
      "Ġchance": 4591,
      "Ġeating": 4592,
      "Ġpolice": 4593,
      "____": 4594,
      "Ġaircraft": 4595,
      "ĠMars": 4596,
      "ĠMem": 4597,
      "ingly": 4598,
      "Ġ1998": 4599,
      "Ġcompar": 4600,
      "ees": 4601,
      "ĠKh": 4602,
      "HE": 4603,
      "ĠProfess": 4604,
      "Ġ185": 4605,
      "Ġbillion": 4606,
      "ĠInf": 4607,
      "Ġfell": 4608,
      "Ġindependent": 4609,
      "Ġdat": 4610,
      "Ġdoubt": 4611,
      "Ġdirection": 4612,
      "ĠMo": 4613,
      "Ġbirds": 4614,
      "itors": 4615,
      "unction": 4616,
      "Ġstandards": 4617,
      "Ġseparate": 4618,
      "Ġinh": 4619,
      "ĠHuman": 4620,
      "Ġlegisl": 4621,
      "standing": 4622,
      "Ġpreviously": 4623,
      "ĠIll": 4624,
      "Ġcandid": 4625,
      "ĠHenry": 4626,
      "Ġlie": 4627,
      "Ġwatch": 4628,
      "Ġmoment": 4629,
      "Ġcharg": 4630,
      "Ġplans": 4631,
      "rec": 4632,
      "ĠGreek": 4633,
      "ĠZeal": 4634,
      "ĠAtl": 4635,
      "rust": 4636,
      "Ġoccurs": 4637,
      "Ġsugar": 4638,
      "Ġpra": 4639,
      "itt": 4640,
      "ellent": 4641,
      "Ġcalcul": 4642,
      "Well": 4643,
      "ĠDi": 4644,
      "Ġapplied": 4645,
      "what": 4646,
      "Ġmeasures": 4647,
      "ĠDel": 4648,
      "Ġunits": 4649,
      "active": 4650,
      "itar": 4651,
      "Ġenh": 4652,
      "la": 4653,
      "Ġtim": 4654,
      "Ġgrand": 4655,
      "Ġforth": 4656,
      "ĠOver": 4657,
      "ĠTem": 4658,
      "ĠGall": 4659,
      "Ġterrit": 4660,
      "ĠSocial": 4661,
      "Ġdrop": 4662,
      "Ġwonder": 4663,
      "47": 4664,
      "ĠRob": 4665,
      "Ġyield": 4666,
      "Ġmachine": 4667,
      "Ġtrying": 4668,
      "Ġanything": 4669,
      "Ġsam": 4670,
      "Ġreports": 4671,
      "ĠCle": 4672,
      "umni": 4673,
      "ĠClass": 4674,
      "ua": 4675,
      "Ġraised": 4676,
      "Ġslight": 4677,
      "ĠBas": 4678,
      "ologist": 4679,
      "Ġ31": 4680,
      "ala": 4681,
      "Ġships": 4682,
      "Ġ1970": 4683,
      "Des": 4684,
      "Ġobserved": 4685,
      "ST": 4686,
      "Ġdu": 4687,
      "aped": 4688,
      "arts": 4689,
      "ĠArab": 4690,
      "Ġtask": 4691,
      "Ġlat": 4692,
      "Ġeverything": 4693,
      "ĠNews": 4694,
      "ĠCountry": 4695,
      "ĠWil": 4696,
      "Ġsatisf": 4697,
      "Ġdesire": 4698,
      "rane": 4699,
      "ĠPo": 4700,
      "ĠCamp": 4701,
      "Ġenem": 4702,
      "Ġwish": 4703,
      "Ġglass": 4704,
      "ishes": 4705,
      "comp": 4706,
      "Ġmorning": 4707,
      "Ġexposure": 4708,
      "Ġbelief": 4709,
      "Thou": 4710,
      "gest": 4711,
      "Ġconducted": 4712,
      "ĠFre": 4713,
      "olk": 4714,
      "Ġblue": 4715,
      "ĠPrin": 4716,
      "bur": 4717,
      "Ġnote": 4718,
      "but": 4719,
      "olf": 4720,
      "igen": 4721,
      "unicip": 4722,
      "Ġdifferences": 4723,
      "Ġfle": 4724,
      "ĠSil": 4725,
      "ootball": 4726,
      "Ġlic": 4727,
      "ĠLake": 4728,
      "Ġusers": 4729,
      "Ġsubsequ": 4730,
      "ĠPlan": 4731,
      "Ġdefend": 4732,
      "acific": 4733,
      "Ġdirected": 4734,
      "ella": 4735,
      "Ġbuy": 4736,
      "ĠTy": 4737,
      "Ġcomfort": 4738,
      "ĠPeter": 4739,
      "Ġsteps": 4740,
      "Ġrank": 4741,
      "Ġrepresented": 4742,
      "nam": 4743,
      "Ġinfect": 4744,
      "under": 4745,
      "AL": 4746,
      "ĠChildren": 4747,
      "do": 4748,
      "zil": 4749,
      "Ab": 4750,
      "related": 4751,
      "Ġunc": 4752,
      "ĠHeaven": 4753,
      "mosp": 4754,
      "Ġstated": 4755,
      "49": 4756,
      "Ġknew": 4757,
      "osen": 4758,
      "Ġbackground": 4759,
      "Ġspeech": 4760,
      "azine": 4761,
      "Ġrecords": 4762,
      "ĠSoviet": 4763,
      "ulf": 4764,
      "Ġstarting": 4765,
      "Ġguide": 4766,
      "Ġsin": 4767,
      "ĠEv": 4768,
      "ĠVirginia": 4769,
      "ĠCivil": 4770,
      "ented": 4771,
      "enced": 4772,
      "load": 4773,
      "Ġpartners": 4774,
      "alle": 4775,
      "Ġign": 4776,
      "Ġlearned": 4777,
      "Ġcovered": 4778,
      "ĠWork": 4779,
      "amily": 4780,
      "Ġeveryone": 4781,
      "AM": 4782,
      "Ġburn": 4783,
      "Ġpark": 4784,
      "Ġsettle": 4785,
      "Ġiron": 4786,
      "cher": 4787,
      "iments": 4788,
      "Ġfigure": 4789,
      "ĠPlay": 4790,
      "Ġhang": 4791,
      "Ġannual": 4792,
      "othes": 4793,
      "Ġdiss": 4794,
      "Ġliber": 4795,
      "Ġsouthern": 4796,
      "ĠScott": 4797,
      "ĠAsia": 4798,
      "Ġregions": 4799,
      "down": 4800,
      "teen": 4801,
      "Ġdrugs": 4802,
      "rieved": 4803,
      "ĠHel": 4804,
      "ensity": 4805,
      "Ġhelped": 4806,
      "Ġ80": 4807,
      "Ġemp": 4808,
      "elligence": 4809,
      "estival": 4810,
      "33": 4811,
      "Ġlimit": 4812,
      "ĠRoad": 4813,
      "Ġmig": 4814,
      "phas": 4815,
      "Ġvoice": 4816,
      "Ġpregn": 4817,
      "ĠZealand": 4818,
      "Ġmo": 4819,
      "Ġproperties": 4820,
      "Ġurban": 4821,
      "Ġexisting": 4822,
      "ĠCommit": 4823,
      "Ġsight": 4824,
      "Ġgene": 4825,
      "thlet": 4826,
      "Ġpul": 4827,
      "Ġsaying": 4828,
      "onic": 4829,
      "acing": 4830,
      "cohol": 4831,
      "Ġdyn": 4832,
      "Ġdear": 4833,
      "ĠSuper": 4834,
      "Ġcopy": 4835,
      "Ġfunctions": 4836,
      "Ġdim": 4837,
      "uthors": 4838,
      "anguages": 4839,
      "Yet": 4840,
      "Ġnorthern": 4841,
      "ĠWin": 4842,
      "Ġprofessor": 4843,
      "Ġ+": 4844,
      "emic": 4845,
      "Ġwall": 4846,
      "Ġlooks": 4847,
      "Ġartists": 4848,
      "Ġconclud": 4849,
      "Ġroot": 4850,
      "amil": 4851,
      "Ġrelatively": 4852,
      "Ġdouble": 4853,
      "Early": 4854,
      "icago": 4855,
      "ĠFrank": 4856,
      "ĠWind": 4857,
      "gment": 4858,
      "osy": 4859,
      "Ġcounter": 4860,
      "rations": 4861,
      "ocratic": 4862,
      "ĠCap": 4863,
      "Ġvent": 4864,
      "ĠBritain": 4865,
      "Ġassum": 4866,
      "place": 4867,
      "Ġoffered": 4868,
      "Ġleader": 4869,
      "Ġ1997": 4870,
      "Ġpp": 4871,
      "Ġwanted": 4872,
      "Ġgarden": 4873,
      "Ġmostly": 4874,
      "Ġsort": 4875,
      "ĠBen": 4876,
      "istan": 4877,
      "Ġlisted": 4878,
      "Ġoriginally": 4879,
      "oper": 4880,
      "Ġyourself": 4881,
      "Ġcook": 4882,
      "vis": 4883,
      "Ġwealth": 4884,
      "Ġcreation": 4885,
      "Ġ1996": 4886,
      "Ġstorm": 4887,
      "Ġisland": 4888,
      "ĠOut": 4889,
      "urance": 4890,
      "Ġbless": 4891,
      "rehens": 4892,
      "ĠSing": 4893,
      "ĠMichael": 4894,
      "Ġbodies": 4895,
      "ells": 4896,
      "works": 4897,
      "Ġprem": 4898,
      "Ġselected": 4899,
      "Ġdrive": 4900,
      "Ġhorse": 4901,
      "Ġstudied": 4902,
      "ĠItaly": 4903,
      "ĠBur": 4904,
      "ructure": 4905,
      "Ġremoved": 4906,
      "Ġsigns": 4907,
      "Ġreferred": 4908,
      "Ġplays": 4909,
      "pris": 4910,
      "ĠLibrary": 4911,
      "ta": 4912,
      "ĠRem": 4913,
      "ican": 4914,
      "met": 4915,
      "Ġlies": 4916,
      "ĠGames": 4917,
      "ĠDevelopment": 4918,
      "Ġelement": 4919,
      "ĠOx": 4920,
      "ĠEmpire": 4921,
      "ĠProgram": 4922,
      "Ġsurvey": 4923,
      "ĠBecause": 4924,
      "Ġreven": 4925,
      "Ġuser": 4926,
      "ĠRussia": 4927,
      "Ġliterature": 4928,
      "Ġeducational": 4929,
      "Ġplanning": 4930,
      "ĠDuke": 4931,
      "Ġwel": 4932,
      "Ġsav": 4933,
      "iled": 4934,
      "ĠScot": 4935,
      "Ġindustrial": 4936,
      "Ġ2022": 4937,
      "iana": 4938,
      "ĠBill": 4939,
      "Ġisn": 4940,
      "ules": 4941,
      "state": 4942,
      "ĠBus": 4943,
      "ario": 4944,
      "Ġincome": 4945,
      "Nay": 4946,
      "Ġfactor": 4947,
      "Ġelim": 4948,
      "ographic": 4949,
      "ancing": 4950,
      "isters": 4951,
      "Ġinitial": 4952,
      "etball": 4953,
      "Ġspect": 4954,
      "Ġbrief": 4955,
      "Ġ1995": 4956,
      "ĠEach": 4957,
      "ipl": 4958,
      "ĠFlorida": 4959,
      "90": 4960,
      "Ġpret": 4961,
      "Ġgenetic": 4962,
      "ĠYear": 4963,
      "Ġcompl": 4964,
      "Ġflood": 4965,
      "ĠNature": 4966,
      "Ġevolution": 4967,
      "ded": 4968,
      "Ġneighbor": 4969,
      "46": 4970,
      "May": 4971,
      "ML": 4972,
      "Ġmel": 4973,
      "omin": 4974,
      "amber": 4975,
      "Ġstraight": 4976,
      "Since": 4977,
      "Ġdidn": 4978,
      "Ġdiabetes": 4979,
      "arp": 4980,
      "ĠIreland": 4981,
      "Ġarmy": 4982,
      "70": 4983,
      "Ġtow": 4984,
      "Come": 4985,
      "ĠIslam": 4986,
      "orage": 4987,
      "Ġplatform": 4988,
      "Ġresistance": 4989,
      "ĠTV": 4990,
      "Ġextremely": 4991,
      "Ġviolence": 4992,
      "Ġtox": 4993,
      "Ġmap": 4994,
      "cel": 4995,
      "Ġgreatest": 4996,
      "Ġsupported": 4997,
      "ogle": 4998,
      "Ġbaby": 4999,
      "Ġsubs": 5000,
      "...)": 5001,
      "ĠUN": 5002,
      "Ġplanet": 5003,
      "ĠBook": 5004,
      "Ġthousands": 5005,
      "ĠMel": 5006,
      "Ġinjury": 5007,
      "ĠPhys": 5008,
      "ĠRome": 5009,
      "According": 5010,
      "igure": 5011,
      "Ġunivers": 5012,
      "onds": 5013,
      "ifically": 5014,
      "annel": 5015,
      "ĠCD": 5016,
      "Ġpicture": 5017,
      "Ġinteresting": 5018,
      "ĠDNA": 5019,
      "roduction": 5020,
      "Ġattract": 5021,
      "Ġremove": 5022,
      "ĠWood": 5023,
      "Ġtaught": 5024,
      "ora": 5025,
      "Ġ1960": 5026,
      "Ġfields": 5027,
      "Ġfirm": 5028,
      "Ġsud": 5029,
      "ban": 5030,
      "Ġchallenge": 5031,
      "ita": 5032,
      "ĠPan": 5033,
      "Ġvess": 5034,
      "Ġfile": 5035,
      "Ġmentioned": 5036,
      "Ġbatter": 5037,
      "Ġfinished": 5038,
      "asters": 5039,
      "Ġincreases": 5040,
      "Ġstim": 5041,
      "Ġprepar": 5042,
      "Ġmort": 5043,
      "Ġinnov": 5044,
      "ĠMill": 5045,
      "pective": 5046,
      "Ġtrain": 5047,
      "Ġunf": 5048,
      "roph": 5049,
      "Ġfly": 5050,
      "Ġmeant": 5051,
      "care": 5052,
      "Ġfellow": 5053,
      "Ġdebut": 5054,
      "orrow": 5055,
      "Ġdefined": 5056,
      "cers": 5057,
      "Ġeffic": 5058,
      "Ġhusband": 5059,
      "rence": 5060,
      "ĠPenn": 5061,
      "Ġselect": 5062,
      "ĠBC": 5063,
      "Ġcam": 5064,
      "Bl": 5065,
      "Ġmetal": 5066,
      "ĠPost": 5067,
      "31": 5068,
      "ĠÐ": 5069,
      "RE": 5070,
      "ĠCat": 5071,
      "ĠOb": 5072,
      "lease": 5073,
      "ĠOffic": 5074,
      "Ġshot": 5075,
      "Ġgeneration": 5076,
      "Ġprove": 5077,
      "Ġconver": 5078,
      "Ġlose": 5079,
      "Ġupper": 5080,
      "ĠPower": 5081,
      "English": 5082,
      "ĠWeb": 5083,
      "ev": 5084,
      "Ġillness": 5085,
      "Ġproposed": 5086,
      "Ġdegrees": 5087,
      "Ġprefer": 5088,
      "othing": 5089,
      "ensus": 5090,
      "Am": 5091,
      "Ġestimated": 5092,
      "32": 5093,
      "ifying": 5094,
      "rome": 5095,
      "Ġarms": 5096,
      "Ġcircum": 5097,
      "34": 5098,
      "Ġdepart": 5099,
      "Ġbow": 5100,
      "abilities": 5101,
      "agues": 5102,
      "Ġwriter": 5103,
      "Ġopportunities": 5104,
      "ĠMedic": 5105,
      "iable": 5106,
      "Ġsuffer": 5107,
      "Ġefficient": 5108,
      "ĠVictor": 5109,
      "ĠParliament": 5110,
      "Ġdistribution": 5111,
      "Ġsetting": 5112,
      "ĠThus": 5113,
      "Ġsexual": 5114,
      "Ġexcess": 5115,
      "ĠFoundation": 5116,
      "Ġchallenges": 5117,
      "Ġclosed": 5118,
      "Ġfourth": 5119,
      "Ġfalse": 5120,
      "Ġdecades": 5121,
      "ĠMinister": 5122,
      "Ġsand": 5123,
      "Ġreplaced": 5124,
      "nds": 5125,
      "ĠAnn": 5126,
      "Ã¤": 5127,
      "Ġincorpor": 5128,
      "akers": 5129,
      "Ġ35": 5130,
      "ĠArts": 5131,
      "anta": 5132,
      "Ġfreedom": 5133,
      "Ġoperation": 5134,
      "Ġinstance": 5135,
      "ĠCommittee": 5136,
      "Ġ90": 5137,
      "ano": 5138,
      "ĠBrother": 5139,
      "Ġacademic": 5140,
      "ĠEnvironment": 5141,
      "Ġvision": 5142,
      "Ġwidely": 5143,
      "Ġpal": 5144,
      "arn": 5145,
      "Ġrequest": 5146,
      "Ġfootballers": 5147,
      "ping": 5148,
      "ilst": 5149,
      "ĠSwed": 5150,
      "Ġthick": 5151,
      "Ġspot": 5152,
      "Ġdro": 5153,
      "Ġintended": 5154,
      "olid": 5155,
      "Ġutil": 5156,
      "Ġ1994": 5157,
      "Ġreference": 5158,
      "ĠRock": 5159,
      "Ġpil": 5160,
      "ĠMaj": 5161,
      "ĠHor": 5162,
      "Ġresulting": 5163,
      "icks": 5164,
      "Ġbegins": 5165,
      "rat": 5166,
      "Ġheight": 5167,
      "US": 5168,
      "Ġartist": 5169,
      "ributed": 5170,
      "Ġ70": 5171,
      "Ġstone": 5172,
      "ĠDef": 5173,
      "Ġadvanced": 5174,
      "Ġnutri": 5175,
      "Ġcritic": 5176,
      "Ġadvantage": 5177,
      "inet": 5178,
      "ĠBest": 5179,
      "Ġtrib": 5180,
      "Ġnotes": 5181,
      "Ġsignificantly": 5182,
      "Ġruns": 5183,
      "Ġconsumption": 5184,
      "Ġhuge": 5185,
      "Ġdetails": 5186,
      "bi": 5187,
      "Ġcomponents": 5188,
      "Ġkm": 5189,
      "ĠWhy": 5190,
      "Most": 5191,
      "asks": 5192,
      "ĠChicago": 5193,
      "Ġemissions": 5194,
      "Ġappearance": 5195,
      "Ġinsect": 5196,
      "Ġneither": 5197,
      "Ġtissue": 5198,
      "Ġgraph": 5199,
      "Ġmeat": 5200,
      "ĠInc": 5201,
      "Ġjoint": 5202,
      "Ġpatterns": 5203,
      "Ġemphas": 5204,
      "ĠProject": 5205,
      "umber": 5206,
      "Ġatmosp": 5207,
      "Nor": 5208,
      "Ġpaid": 5209,
      "ĠTom": 5210,
      "Ġbalance": 5211,
      "olars": 5212,
      "Ġreplace": 5213,
      "ĠPacific": 5214,
      "During": 5215,
      "Ġru": 5216,
      "Ġscen": 5217,
      "osc": 5218,
      "kins": 5219,
      "ails": 5220,
      "Ġconnected": 5221,
      "Ġcere": 5222,
      "Ġdangerous": 5223,
      "Ġhath": 5224,
      "igan": 5225,
      "aph": 5226,
      "Gen": 5227,
      "Ġsudden": 5228,
      "ĠEngine": 5229,
      "ET": 5230,
      "Ġwear": 5231,
      "Ġexplore": 5232,
      "ĠOrgan": 5233,
      "Ġgall": 5234,
      "Ġmainly": 5235,
      "Ġpros": 5236,
      "ĠElect": 5237,
      "osa": 5238,
      "PS": 5239,
      "ĠConf": 5240,
      "Ġcontem": 5241,
      "Ġmilk": 5242,
      "ĠClub": 5243,
      "Ġhospital": 5244,
      "Ġrequirements": 5245,
      "tw": 5246,
      "Ġconsult": 5247,
      "Ġnav": 5248,
      "ĠJoseph": 5249,
      "Ġscore": 5250,
      "Ġcoal": 5251,
      "ĠChampionship": 5252,
      "Ġfrequently": 5253,
      "ĠMuslim": 5254,
      "Ġtreated": 5255,
      "44": 5256,
      "Ġapply": 5257,
      "ressive": 5258,
      "rog": 5259,
      "Ġextend": 5260,
      "Ġhousehold": 5261,
      "Ġimmune": 5262,
      "Ġabsor": 5263,
      "Ġaccur": 5264,
      "Ġsuc": 5265,
      "Ġdistinct": 5266,
      "aud": 5267,
      "ĠStar": 5268,
      "Ġhappen": 5269,
      "ĠCarolina": 5270,
      "stitution": 5271,
      "ĠCommon": 5272,
      "Ġmedicine": 5273,
      "ologists": 5274,
      "Ġpieces": 5275,
      "ĠHill": 5276,
      "Ġsuggests": 5277,
      "ashion": 5278,
      "ĠSpain": 5279,
      "Ġbottom": 5280,
      "Ġfert": 5281,
      "Ġreality": 5282,
      "bal": 5283,
      "ĠPers": 5284,
      "Ġbright": 5285,
      "illed": 5286,
      "Ġinterview": 5287,
      "Ġexcellent": 5288,
      "Ġevalu": 5289,
      "ĠSaint": 5290,
      "75": 5291,
      "ĠInternet": 5292,
      "Ġsyn": 5293,
      "war": 5294,
      "ĠSqu": 5295,
      "Ġaid": 5296,
      "Ġforg": 5297,
      "Ġdisorder": 5298,
      "Qu": 5299,
      "ĠRichard": 5300,
      "Me": 5301,
      "ript": 5302,
      "Ġlanguages": 5303,
      "Ġleaving": 5304,
      "ĠTest": 5305,
      "apes": 5306,
      "Ġcontrast": 5307,
      "'ll": 5308,
      "MS": 5309,
      "Ġowners": 5310,
      "Ġdiscover": 5311,
      "ements": 5312,
      "Ġdivided": 5313,
      "Ġclasses": 5314,
      "yr": 5315,
      "Â°": 5316,
      "aria": 5317,
      "Ġprepared": 5318,
      "ipe": 5319,
      "Ġalumni": 5320,
      "Ġreligion": 5321,
      "Ġsufficient": 5322,
      "ĠNavy": 5323,
      "Ġsoldiers": 5324,
      "raction": 5325,
      "Ġassociation": 5326,
      "kes": 5327,
      "CO": 5328,
      "Ġtwenty": 5329,
      "Ġ1992": 5330,
      "Ġended": 5331,
      "tical": 5332,
      "ygen": 5333,
      "mir": 5334,
      "Ġphase": 5335,
      "Ġcredit": 5336,
      "Ġphen": 5337,
      "Ġcausing": 5338,
      "Ġoptions": 5339,
      "Ġseed": 5340,
      "eria": 5341,
      "Ġboy": 5342,
      "Ġdespite": 5343,
      "Ġexperiences": 5344,
      "yt": 5345,
      "ulum": 5346,
      "Ġcomplic": 5347,
      "ĠHaw": 5348,
      "ĠTimes": 5349,
      "DA": 5350,
      "ĠUse": 5351,
      "Ġfailure": 5352,
      "ĠJews": 5353,
      "Ġliqu": 5354,
      "Ġedition": 5355,
      "Ġfindings": 5356,
      "ittle": 5357,
      "ĠJustice": 5358,
      "ĠForm": 5359,
      "Ġpoet": 5360,
      "Ġran": 5361,
      "Ġpersons": 5362,
      "Ġalternative": 5363,
      "ĠWrit": 5364,
      "Ġactual": 5365,
      "oving": 5366,
      "Ġgets": 5367,
      "aked": 5368,
      "Ġworse": 5369,
      "Ġvary": 5370,
      "ĠOffice": 5371,
      "kin": 5372,
      "Ġexplain": 5373,
      "cular": 5374,
      "iced": 5375,
      "opy": 5376,
      "Ġbask": 5377,
      "Ġexpression": 5378,
      "Ġfinding": 5379,
      "rier": 5380,
      "ĠBet": 5381,
      "rants": 5382,
      "Ġnewsp": 5383,
      "ĠGeorg": 5384,
      "Ġweap": 5385,
      "ĠTre": 5386,
      "Ġleague": 5387,
      "Ġdivision": 5388,
      "from": 5389,
      "Ġstars": 5390,
      "Ġstatement": 5391,
      "Ġheaven": 5392,
      "pat": 5393,
      "Ġcompetition": 5394,
      "Ġhouses": 5395,
      "Ġengineering": 5396,
      "iders": 5397,
      "Ġfinally": 5398,
      "Ġhomes": 5399,
      "Ġgrown": 5400,
      "Ġlinked": 5401,
      "Ġaf": 5402,
      "Ġmarriage": 5403,
      "Ġexperiment": 5404,
      "Ġopening": 5405,
      "ĠMiddle": 5406,
      "Ġantib": 5407,
      "More": 5408,
      "Ġcomment": 5409,
      "ĠId": 5410,
      "Ġnutrit": 5411,
      "ĠLatin": 5412,
      "Ġnine": 5413,
      "âĢĿ,": 5414,
      "Ġdetermined": 5415,
      "Ġprofession": 5416,
      "Ġban": 5417,
      "Ġmotor": 5418,
      "Ġwound": 5419,
      "zen": 5420,
      "Ġarticles": 5421,
      "anda": 5422,
      "iling": 5423,
      "ourney": 5424,
      "Ġkid": 5425,
      "ĠSom": 5426,
      "roke": 5427,
      "ĠTime": 5428,
      "Ġalcohol": 5429,
      "onia": 5430,
      "Ġcert": 5431,
      "ĠForce": 5432,
      "Ġvictim": 5433,
      "Ġitems": 5434,
      "Ġstrategies": 5435,
      "Ġmix": 5436,
      "Ġpopulations": 5437,
      "Ġfelt": 5438,
      "ĠRecords": 5439,
      "Ġflight": 5440,
      "Ġoccasion": 5441,
      "Ġcycle": 5442,
      "ĠWild": 5443,
      "Ġinstitutions": 5444,
      "illa": 5445,
      "ĠBrown": 5446,
      "Ġwestern": 5447,
      "Ġfollows": 5448,
      "Ġprimarily": 5449,
      "imb": 5450,
      "ilit": 5451,
      "Ġconflict": 5452,
      "Åį": 5453,
      "Ġtum": 5454,
      "Ġwriters": 5455,
      "CC": 5456,
      "Ġclinical": 5457,
      "ĠLo": 5458,
      "Ġmuseum": 5459,
      "Ġsquare": 5460,
      "RO": 5461,
      "ĠRetrieved": 5462,
      "Ġaspects": 5463,
      "ĠNations": 5464,
      "Ġtransform": 5465,
      "aded": 5466,
      "ĠColumb": 5467,
      "iox": 5468,
      "78": 5469,
      "ati": 5470,
      "Ġraise": 5471,
      "Ġsecure": 5472,
      "Ġcombination": 5473,
      "100": 5474,
      "Ġmanufacture": 5475,
      "ĠBank": 5476,
      "uration": 5477,
      "ession": 5478,
      "Ġspl": 5479,
      "Ġtrial": 5480,
      "Ġbud": 5481,
      "Ġamb": 5482,
      "Ġnotice": 5483,
      "Ġmathemat": 5484,
      "oral": 5485,
      "Ġstations": 5486,
      "Ġparticipants": 5487,
      "Ġmessage": 5488,
      "Ġsides": 5489,
      "Ġpit": 5490,
      "En": 5491,
      "Col": 5492,
      "Ġleads": 5493,
      "Ġauthority": 5494,
      "Ġpretty": 5495,
      "Ġagg": 5496,
      "Ġadvance": 5497,
      "Ġ1993": 5498,
      "heast": 5499,
      "Ġsolid": 5500,
      "AP": 5501,
      "nic": 5502,
      "Ġtopic": 5503,
      "ava": 5504,
      "ĠBrazil": 5505,
      "you": 5506,
      "ÅĤ": 5507,
      "ĠCre": 5508,
      "Ġauthors": 5509,
      "yes": 5510,
      "Ġnoble": 5511,
      "Ġdepression": 5512,
      "orter": 5513,
      "ĠLiber": 5514,
      "ossible": 5515,
      "Ġguitar": 5516,
      "ĠHa": 5517,
      "ĠEr": 5518,
      "Ġconnection": 5519,
      "Ġsample": 5520,
      "Ġeasier": 5521,
      "ĠLong": 5522,
      "Ġinstall": 5523,
      "Ġrecommended": 5524,
      "Ġ1991": 5525,
      "Ġanx": 5526,
      "Ġvolume": 5527,
      "atre": 5528,
      "ĠHave": 5529,
      "Other": 5530,
      "ĠRail": 5531,
      "Ġcontinues": 5532,
      "ĠDen": 5533,
      "Ġdecisions": 5534,
      "ieties": 5535,
      "ĠEnd": 5536,
      "ĠCamb": 5537,
      "Ġstock": 5538,
      "Ġphilosoph": 5539,
      "Ġregional": 5540,
      "41": 5541,
      "Ġconsists": 5542,
      "Ġtechnologies": 5543,
      "Are": 5544,
      "ĠBoth": 5545,
      "Ġcorresp": 5546,
      "ocol": 5547,
      "Ġotherwise": 5548,
      "comes": 5549,
      "long": 5550,
      "Ġinternal": 5551,
      "Ġsynt": 5552,
      "Ġconc": 5553,
      "Ġformation": 5554,
      "hetic": 5555,
      "icy": 5556,
      "Ġschem": 5557,
      "nergy": 5558,
      "lers": 5559,
      "ĠMur": 5560,
      "heim": 5561,
      "Ġyellow": 5562,
      "Ġgoods": 5563,
      "Although": 5564,
      "Ġvul": 5565,
      "ĠOrder": 5566,
      "Ġcoach": 5567,
      "Ġrural": 5568,
      "Ġalbums": 5569,
      "Ġdogs": 5570,
      "Ġchanging": 5571,
      "zing": 5572,
      "ĠSecret": 5573,
      "ĠInde": 5574,
      "Ġparties": 5575,
      "ĠBoard": 5576,
      "Ġpromote": 5577,
      "Ġpolicies": 5578,
      "Ġarrived": 5579,
      "Ġgrass": 5580,
      "ĠDutch": 5581,
      "Tw": 5582,
      "aks": 5583,
      "Ġisol": 5584,
      "ĠSee": 5585,
      "Ġtemperatures": 5586,
      "ollowing": 5587,
      "ĠTherefore": 5588,
      "Her": 5589,
      "ĠNorthern": 5590,
      "Ġcompos": 5591,
      "Ġelectricity": 5592,
      "ĠConst": 5593,
      "Ġbone": 5594,
      "Ġneuro": 5595,
      "Ġpaint": 5596,
      "rang": 5597,
      "Ġsick": 5598,
      "Ġencourage": 5599,
      "Ġregarding": 5600,
      "Ġmuscle": 5601,
      "Ġorganic": 5602,
      "Ġcris": 5603,
      "42": 5604,
      "Ġstrange": 5605,
      "idelines": 5606,
      "Ġnuclear": 5607,
      "Ġstorage": 5608,
      "osh": 5609,
      "ĠTechnology": 5610,
      "Ġreform": 5611,
      "agers": 5612,
      "Ġdeliver": 5613,
      "Ġflowers": 5614,
      "Ġwitness": 5615,
      "Ġformat": 5616,
      "Ġplastic": 5617,
      "iveness": 5618,
      "Ġcombined": 5619,
      "stone": 5620,
      "ĠGods": 5621,
      "Ġknows": 5622,
      "Ġconcerns": 5623,
      "Ġconfir": 5624,
      "Ġallowing": 5625,
      "Ġjoy": 5626,
      "uls": 5627,
      "ching": 5628,
      "ĠKings": 5629,
      "ĠBir": 5630,
      "....": 5631,
      "ĠLos": 5632,
      "99": 5633,
      "ĠCa": 5634,
      "add": 5635,
      "ylvan": 5636,
      "ĠVen": 5637,
      "01": 5638,
      "Ġhence": 5639,
      "Ġclassroom": 5640,
      "icted": 5641,
      "Ġbeat": 5642,
      "Ġfool": 5643,
      "Ġhearing": 5644,
      "Ġdare": 5645,
      "ĠIrish": 5646,
      "Ġtechnique": 5647,
      "EL": 5648,
      "Ġupd": 5649,
      "Ġinvolve": 5650,
      "Ġlaunched": 5651,
      "ĠCard": 5652,
      "gent": 5653,
      "Ġsurgery": 5654,
      "eters": 5655,
      "ourage": 5656,
      "stein": 5657,
      "John": 5658,
      "Ġperman": 5659,
      "Ġgar": 5660,
      "Ġremaining": 5661,
      "Ġbreath": 5662,
      "Ġexperienced": 5663,
      "wa": 5664,
      "Ġletters": 5665,
      "Ġdream": 5666,
      "ĠTri": 5667,
      "Ġ1950": 5668,
      "Ġcharacteristics": 5669,
      "Ġentered": 5670,
      "Ġrenew": 5671,
      "ĠCaptain": 5672,
      "Ġlatter": 5673,
      "ĠLab": 5674,
      "Ġresource": 5675,
      "Ġcommission": 5676,
      "Ġcra": 5677,
      "ĠSouthern": 5678,
      "Ġdoor": 5679,
      "ĠHeart": 5680,
      "aith": 5681,
      "ĠSol": 5682,
      "Ġexpert": 5683,
      "ĠYoung": 5684,
      "Ġroll": 5685,
      "Ġcore": 5686,
      "Ġsister": 5687,
      "Ġ;": 5688,
      "ceived": 5689,
      "ĠWell": 5690,
      "Ġreducing": 5691,
      "Ġsucceed": 5692,
      "Ġtwice": 5693,
      "Ġofficials": 5694,
      "Ge": 5695,
      "ĠNob": 5696,
      "illing": 5697,
      "Ġopinion": 5698,
      "ls": 5699,
      "atically": 5700,
      "Ġroute": 5701,
      "roat": 5702,
      "oston": 5703,
      "Ġcouple": 5704,
      "ĠLu": 5705,
      "Ġconcern": 5706,
      "iÄ": 5707,
      "ipped": 5708,
      "Ġimproved": 5709,
      "Ġrevolution": 5710,
      "Ġsolutions": 5711,
      "rating": 5712,
      "Ġcogn": 5713,
      "Ġtroops": 5714,
      "Mar": 5715,
      "Ġtal": 5716,
      "Ġoccurred": 5717,
      "Ġmanage": 5718,
      "ĠLeg": 5719,
      "Ġjustice": 5720,
      "ĠFood": 5721,
      "ĠStat": 5722,
      "itage": 5723,
      "Ġbeautiful": 5724,
      "Ġobtained": 5725,
      "Ġsector": 5726,
      "Ġlargely": 5727,
      "Ġassessment": 5728,
      "Ġreaction": 5729,
      "Ġvan": 5730,
      "Ġrelationships": 5731,
      "Ġclearly": 5732,
      "king": 5733,
      "ulty": 5734,
      "ĠAcc": 5735,
      "ĠKar": 5736,
      "Ġchronic": 5737,
      "iverse": 5738,
      "Med": 5739,
      "However": 5740,
      "Ġoperating": 5741,
      "ocal": 5742,
      "Ġshared": 5743,
      "Ġtrig": 5744,
      "cribed": 5745,
      "Ġrow": 5746,
      "ĠOnce": 5747,
      "Ġpredict": 5748,
      "being": 5749,
      "Ġlaid": 5750,
      "Ġrough": 5751,
      "mas": 5752,
      "uts": 5753,
      "Ġcomprehens": 5754,
      "Ġmere": 5755,
      "Ġattended": 5756,
      "EM": 5757,
      "Ġ45": 5758,
      "Ġuniversity": 5759,
      "Ġexposed": 5760,
      "Ġquarter": 5761,
      "Ġrevealed": 5762,
      "Ġstands": 5763,
      "ĠÎ": 5764,
      "upp": 5765,
      "comm": 5766,
      "uilding": 5767,
      "Ġwaters": 5768,
      "ĠVer": 5769,
      "ĠMist": 5770,
      "Ġdisorders": 5771,
      "oded": 5772,
      "Ġpages": 5773,
      "ĠEconom": 5774,
      "ycl": 5775,
      "lets": 5776,
      "ĠBig": 5777,
      "Ġfocused": 5778,
      "Ġgender": 5779,
      "ĠHonor": 5780,
      "iano": 5781,
      "ĠStudies": 5782,
      "othe": 5783,
      "ĠValley": 5784,
      "Ġmotion": 5785,
      "OS": 5786,
      "ether": 5787,
      "Ġhonest": 5788,
      "Ġgenes": 5789,
      "Ġunknown": 5790,
      "who": 5791,
      "Ġsignal": 5792,
      "Have": 5793,
      "Ġattacks": 5794,
      "ĠGar": 5795,
      "Ġaccomp": 5796,
      "Ġtried": 5797,
      "ylvania": 5798,
      "icit": 5799,
      "AD": 5800,
      "Ġresidents": 5801,
      "Ġanyone": 5802,
      "Ġgrade": 5803,
      "ĠProte": 5804,
      "then": 5805,
      "Ġvehicle": 5806,
      "enses": 5807,
      "Ġhelping": 5808,
      "Ġhaue": 5809,
      "Many": 5810,
      "Ġprotected": 5811,
      "Don": 5812,
      "oster": 5813,
      "ette": 5814,
      "Ġfacilities": 5815,
      "Ġunderst": 5816,
      "Ġinvolves": 5817,
      "Ġoxygen": 5818,
      "Ġseat": 5819,
      "Man": 5820,
      "Ġextent": 5821,
      "Ġepisode": 5822,
      "ĠHead": 5823,
      "azz": 5824,
      "Ġwalls": 5825,
      "Ġcoord": 5826,
      "Ġtechnical": 5827,
      "ĠMedical": 5828,
      "Ġlayer": 5829,
      "Ġpure": 5830,
      "ught": 5831,
      "Ġvast": 5832,
      "Ġfeeling": 5833,
      "Ġmissing": 5834,
      "Ġinterested": 5835,
      "Ġelev": 5836,
      "fit": 5837,
      "Ġexactly": 5838,
      "ih": 5839,
      "Ġlabel": 5840,
      "irt": 5841,
      "inding": 5842,
      "Ġfailed": 5843,
      "yer": 5844,
      "Ġhun": 5845,
      "65": 5846,
      "Ġrisks": 5847,
      "Ġsubjects": 5848,
      "Ġdiscussion": 5849,
      "Ġpric": 5850,
      "inder": 5851,
      "unte": 5852,
      "05": 5853,
      "Ġsurrounding": 5854,
      "abase": 5855,
      "Ġalg": 5856,
      "ĠSummer": 5857,
      "ĠColor": 5858,
      "Ġcalls": 5859,
      "Ġcir": 5860,
      "Ġconservation": 5861,
      "Ġprinciples": 5862,
      "Ġrang": 5863,
      "ĠCoast": 5864,
      "Ġocean": 5865,
      "43": 5866,
      "ĠDeath": 5867,
      "Ġfigures": 5868,
      "Ġadjust": 5869,
      "ĠStand": 5870,
      "RI": 5871,
      "ĠLee": 5872,
      "Ġoption": 5873,
      "ompl": 5874,
      "erves": 5875,
      "Ġmanaged": 5876,
      "Ġfloor": 5877,
      "Ġgrew": 5878,
      "Ġeffectively": 5879,
      "ĠNAS": 5880,
      "Ġfarmers": 5881,
      "vin": 5882,
      "Ġdial": 5883,
      "quar": 5884,
      "ĠGal": 5885,
      "achus": 5886,
      "Im": 5887,
      "Ġinterpret": 5888,
      "Ġproperly": 5889,
      "nto": 5890,
      "Mus": 5891,
      "Ġbill": 5892,
      "people": 5893,
      "ĠSupp": 5894,
      "ĠEvery": 5895,
      "Ġthank": 5896,
      "ĠTreat": 5897,
      "osystem": 5898,
      "ĠBattle": 5899,
      "Ġarrest": 5900,
      "Ġsenior": 5901,
      "ĠHome": 5902,
      "orough": 5903,
      "taining": 5904,
      "Ġdepending": 5905,
      "emb": 5906,
      "Ġvote": 5907,
      "Ġbee": 5908,
      "ongue": 5909,
      "Ġoutput": 5910,
      "ĠPub": 5911,
      "ĠPass": 5912,
      "oto": 5913,
      "ĠSoul": 5914,
      "Ġsuggested": 5915,
      "eper": 5916,
      "Ġawarded": 5917,
      "ĠAtt": 5918,
      "ĠCr": 5919,
      "Ġidentity": 5920,
      "cest": 5921,
      "95": 5922,
      "otic": 5923,
      "ardon": 5924,
      "Ġpurposes": 5925,
      "ĠDou": 5926,
      "Ġseeds": 5927,
      "inals": 5928,
      "Ġmunicip": 5929,
      "ĠUSA": 5930,
      "ĠMartin": 5931,
      "Ġtruly": 5932,
      "Ġgirls": 5933,
      "ĠRh": 5934,
      "ansas": 5935,
      "2010": 5936,
      "ĠCare": 5937,
      "Ġcoin": 5938,
      "ĠOxford": 5939,
      "ĠGh": 5940,
      "ĠProfessor": 5941,
      "ĠAD": 5942,
      "prise": 5943,
      "etts": 5944,
      "ĠCult": 5945,
      "Ġextended": 5946,
      "Ġshoot": 5947,
      "ĠCrown": 5948,
      "ĠExp": 5949,
      "Ġalign": 5950,
      "chers": 5951,
      "acts": 5952,
      "Ġmedal": 5953,
      "Ġdescribe": 5954,
      "TS": 5955,
      "mal": 5956,
      "Ġiniti": 5957,
      "Ġrelevant": 5958,
      "going": 5959,
      "Ġabuse": 5960,
      "Ġrecognized": 5961,
      "uh": 5962,
      "Ġmaximum": 5963,
      "Ġbroken": 5964,
      "Ġod": 5965,
      "ĠOper": 5966,
      "orses": 5967,
      "cell": 5968,
      "asp": 5969,
      "Ġhorm": 5970,
      "ĠDet": 5971,
      "Ġprocessing": 5972,
      "ĠBab": 5973,
      "ĠNight": 5974,
      "Ġnom": 5975,
      "peror": 5976,
      "Ġserving": 5977,
      "Ġmad": 5978,
      "ĠManagement": 5979,
      "uten": 5980,
      "antly": 5981,
      "Ġbrand": 5982,
      "Ġstrate": 5983,
      "riculum": 5984,
      "Ġnarrow": 5985,
      "isp": 5986,
      "Ġstrategy": 5987,
      "uses": 5988,
      "ooth": 5989,
      "Ġadministration": 5990,
      "riz": 5991,
      "Ġhaz": 5992,
      "ĠEastern": 5993,
      "tra": 5994,
      "Ġwait": 5995,
      "inity": 5996,
      "Cont": 5997,
      "Ġapparent": 5998,
      "olve": 5999,
      "ĠRead": 6000,
      "Ġsuspect": 6001,
      "Ġdistingu": 6002,
      "ĠAnother": 6003,
      "Ġamounts": 6004,
      "pet": 6005,
      "ĠGr": 6006,
      "inois": 6007,
      "ĠIII": 6008,
      "ĠAge": 6009,
      "ca": 6010,
      "Ġsail": 6011,
      "Ġbeauty": 6012,
      "Ġkil": 6013,
      "Ġkeeping": 6014,
      "inating": 6015,
      "irty": 6016,
      "ansion": 6017,
      "Ġthin": 6018,
      "eless": 6019,
      "Ġcollected": 6020,
      "Ġhappens": 6021,
      "Ġinflamm": 6022,
      "ĠPop": 6023,
      "ĠFurther": 6024,
      "ĠCross": 6025,
      "Ġcontaining": 6026,
      "ĠArm": 6027,
      "Ġcertainly": 6028,
      "sylvania": 6029,
      "verty": 6030,
      "rastructure": 6031,
      "Ġonto": 6032,
      "bar": 6033,
      "Ġce": 6034,
      "Ġexchange": 6035,
      "ĠTim": 6036,
      "Ġshowing": 6037,
      "Ġlooked": 6038,
      "ourse": 6039,
      "Ġsnow": 6040,
      "Ġfeatured": 6041,
      "Ġflat": 6042,
      "Ġvictory": 6043,
      "Ġexperts": 6044,
      "Ġsport": 6045,
      "Ġtells": 6046,
      "Ġadvice": 6047,
      "ortunately": 6048,
      "Ġportion": 6049,
      "Ġemotional": 6050,
      "agon": 6051,
      "Ġ(...)": 6052,
      "Ġsymbol": 6053,
      "ĠDesign": 6054,
      "Ġcrime": 6055,
      "Ġ1989": 6056,
      "Ġpoverty": 6057,
      "Ġofficers": 6058,
      "Ġproport": 6059,
      "Ġdestroyed": 6060,
      "Ġ1988": 6061,
      "Ġproteins": 6062,
      "ĠAut": 6063,
      "Ġloved": 6064,
      "FC": 6065,
      "Ġproceed": 6066,
      "Ġcenturies": 6067,
      "Ġprou": 6068,
      "Ġtraffic": 6069,
      "Ġsad": 6070,
      "Ġleadership": 6071,
      "Ġchampions": 6072,
      "Ġends": 6073,
      "Ġmusical": 6074,
      "Ġefficiency": 6075,
      "ĠScotland": 6076,
      "ĠBul": 6077,
      "ĠInformation": 6078,
      "ĠFederal": 6079,
      "FL": 6080,
      "Ġgentle": 6081,
      "uable": 6082,
      "Ġfashion": 6083,
      "eline": 6084,
      "Ġ500": 6085,
      "2007": 6086,
      "Ġrefers": 6087,
      "Ġagricultural": 6088,
      "ournament": 6089,
      "Ġtooth": 6090,
      "ĠChief": 6091,
      "Ġagreement": 6092,
      "Ġflag": 6093,
      "08": 6094,
      "Ġdiam": 6095,
      "Ġhappened": 6096,
      "Ġclaims": 6097,
      "Per": 6098,
      "Ġrid": 6099,
      "Ġcolumn": 6100,
      "Ġinput": 6101,
      "uan": 6102,
      "aming": 6103,
      "ults": 6104,
      "Ġinfections": 6105,
      "Ġspecifically": 6106,
      "Ã¨": 6107,
      "ĠDirector": 6108,
      "Ġaccepted": 6109,
      "Ġped": 6110,
      "Ġdomestic": 6111,
      "ĠAngeles": 6112,
      "Ġimmig": 6113,
      "Ġera": 6114,
      "ba": 6115,
      "ĠFootball": 6116,
      "First": 6117,
      "elve": 6118,
      "Ġsole": 6119,
      "Ġtor": 6120,
      "ĠEnergy": 6121,
      "awa": 6122,
      "iro": 6123,
      "ima": 6124,
      "Ġtun": 6125,
      "ĠSpace": 6126,
      "Ġdynam": 6127,
      "Ġbird": 6128,
      "Care": 6129,
      "Ġawareness": 6130,
      "orous": 6131,
      "Ġjudge": 6132,
      "rovers": 6133,
      "Ġvehicles": 6134,
      "Ġmanager": 6135,
      "2013": 6136,
      "Ã³n": 6137,
      "abeth": 6138,
      "Ġsed": 6139,
      "Ġpromin": 6140,
      "Ġexistence": 6141,
      "500": 6142,
      "perial": 6143,
      "Ġcorrespond": 6144,
      "ĠField": 6145,
      "roid": 6146,
      "zo": 6147,
      "Ġlung": 6148,
      "gi": 6149,
      "ĠPortug": 6150,
      "ĠSand": 6151,
      "Ġing": 6152,
      "Ġcontribute": 6153,
      "class": 6154,
      "ione": 6155,
      "Com": 6156,
      "Ġseasons": 6157,
      "Ġesc": 6158,
      "Ġslightly": 6159,
      "achusetts": 6160,
      "Ġeditor": 6161,
      "Ġintroduction": 6162,
      "Ġdance": 6163,
      "bles": 6164,
      "Ġintelligence": 6165,
      "ockey": 6166,
      "Ġâ": 6167,
      "Ġchart": 6168,
      "Ġadvoc": 6169,
      "crete": 6170,
      "Ġsilver": 6171,
      "Ġoblig": 6172,
      "Ġduty": 6173,
      "Ġvitamin": 6174,
      "Ġsecondary": 6175,
      "wan": 6176,
      "hire": 6177,
      "FA": 6178,
      "Ġpollution": 6179,
      "Ġdefinition": 6180,
      "Ġdoll": 6181,
      "Ġscholars": 6182,
      "BS": 6183,
      "ersonal": 6184,
      "ĠForest": 6185,
      "Ġdedicated": 6186,
      "Ġcatch": 6187,
      "Ġleaf": 6188,
      "ĠMah": 6189,
      "Ġpleasure": 6190,
      "igenous": 6191,
      "Ġseeing": 6192,
      "Ġunless": 6193,
      "Ġsets": 6194,
      "Ġadopted": 6195,
      "Ġprint": 6196,
      "Ġmixed": 6197,
      "ali": 6198,
      "wing": 6199,
      "body": 6200,
      "Ġmotiv": 6201,
      "ĠAff": 6202,
      "pping": 6203,
      "Ġsan": 6204,
      "Ġeggs": 6205,
      "ĠST": 6206,
      "Ġresponsibility": 6207,
      "Ġagree": 6208,
      "ĠOpen": 6209,
      "oured": 6210,
      "roc": 6211,
      "ĠCorn": 6212,
      "Ġmath": 6213,
      "ĠRevolution": 6214,
      "Ġwet": 6215,
      "Ġchain": 6216,
      "ĠOhio": 6217,
      "fall": 6218,
      "Ġther": 6219,
      "obe": 6220,
      "ĠRights": 6221,
      "rous": 6222,
      "Ġofficer": 6223,
      "ĠGree": 6224,
      "Ġguard": 6225,
      "Ġissued": 6226,
      "88": 6227,
      "Ġcrim": 6228,
      "anes": 6229,
      "ĠJul": 6230,
      "Ġdrinking": 6231,
      "bury": 6232,
      "ĠOcean": 6233,
      "CS": 6234,
      "Ġeld": 6235,
      "Ġcars": 6236,
      "Ġcontrolled": 6237,
      "Ġinterests": 6238,
      "oted": 6239,
      "amental": 6240,
      "ĠMother": 6241,
      "Ġdigest": 6242,
      "Ġfrequency": 6243,
      "Ġpoly": 6244,
      "Ġcentre": 6245,
      "Ġextreme": 6246,
      "hand": 6247,
      "ĠPennsylvania": 6248,
      "ĠBoston": 6249,
      "ighter": 6250,
      "Ġvalid": 6251,
      "after": 6252,
      "adel": 6253,
      "ĠCam": 6254,
      "Ġbasketball": 6255,
      "cknow": 6256,
      "Comm": 6257,
      "ĠStudents": 6258,
      "ĠColl": 6259,
      "Ġradiation": 6260,
      "Ġlibrary": 6261,
      "ĠLike": 6262,
      "Ġindicate": 6263,
      "Ġconcepts": 6264,
      "ko": 6265,
      "ndrome": 6266,
      "Ġaccompl": 6267,
      "Ġnoise": 6268,
      "ĠMichigan": 6269,
      "Ġorganized": 6270,
      "ĠBudd": 6271,
      "Ġagreed": 6272,
      "resents": 6273,
      "ĠSciences": 6274,
      "ropical": 6275,
      "ĠUk": 6276,
      "umes": 6277,
      "Ġvaccine": 6278,
      "ĠToday": 6279,
      "idden": 6280,
      "Another": 6281,
      "tenance": 6282,
      "Ġmountain": 6283,
      "iform": 6284,
      "Car": 6285,
      "orne": 6286,
      "Ġconcerned": 6287,
      "Ġprocedure": 6288,
      "ĠHIV": 6289,
      "Ġexpressed": 6290,
      "ĠGlobal": 6291,
      "mes": 6292,
      "Ġsteel": 6293,
      "ulating": 6294,
      "ĠSup": 6295,
      "'ve": 6296,
      "Ġobvious": 6297,
      "mat": 6298,
      "Ġamongst": 6299,
      "Ġarchitecture": 6300,
      "ĠWal": 6301,
      "Ġbridge": 6302,
      "athy": 6303,
      "ĠMedicine": 6304,
      "abil": 6305,
      "Ġcorpor": 6306,
      "03": 6307,
      "Ġcup": 6308,
      "Ġsell": 6309,
      "oking": 6310,
      "Ġdepartment": 6311,
      "Ġrein": 6312,
      "Ġplain": 6313,
      "Ġvegetables": 6314,
      "aturally": 6315,
      "Ġsounds": 6316,
      "Ġrelative": 6317,
      "Ġwants": 6318,
      "itud": 6319,
      "ĠWoman": 6320,
      "pan": 6321,
      "Ġsalt": 6322,
      "Ġinitially": 6323,
      "ĠFour": 6324,
      "Ġvulner": 6325,
      "ĠClin": 6326,
      "ĠJac": 6327,
      "ĠHy": 6328,
      "Ġmarked": 6329,
      "09": 6330,
      "ĠIllinois": 6331,
      "Ġly": 6332,
      "asts": 6333,
      "Ġscored": 6334,
      "ogs": 6335,
      "ĠFace": 6336,
      "Ġhopes": 6337,
      "ĠFire": 6338,
      "ĠLight": 6339,
      "Ġimpossible": 6340,
      "Ġreduction": 6341,
      "Ġcrucial": 6342,
      "ĠVill": 6343,
      "appe": 6344,
      "aniel": 6345,
      "Ġtasks": 6346,
      "Ġsubstant": 6347,
      "Ġyounger": 6348,
      "Ġdrawn": 6349,
      "Ġconqu": 6350,
      "Ġfamiliar": 6351,
      "ĠWall": 6352,
      "ificial": 6353,
      "align": 6354,
      "07": 6355,
      "Ġforget": 6356,
      "Ġassign": 6357,
      "Ġemployees": 6358,
      "ĠRepresent": 6359,
      "ĠBusiness": 6360,
      "Ġkne": 6361,
      "ĠCentre": 6362,
      "organ": 6363,
      "ishment": 6364,
      "tion": 6365,
      "osal": 6366,
      "Ġfoss": 6367,
      "Ġjobs": 6368,
      "ĠEp": 6369,
      "ĠEdward": 6370,
      "Ġwithd": 6371,
      "ĠDar": 6372,
      "ĠTit": 6373,
      "Ġpractical": 6374,
      "stream": 6375,
      "Ġguidelines": 6376,
      "Ġshel": 6377,
      "Ed": 6378,
      "Ġroots": 6379,
      "Ġowned": 6380,
      "Ġnations": 6381,
      "Ġclosely": 6382,
      "ĠAN": 6383,
      "Ġcomposed": 6384,
      "ester": 6385,
      "racy": 6386,
      "Ġ(\"": 6387,
      "Ġfrag": 6388,
      "Ġtopics": 6389,
      "Ġabsol": 6390,
      "antry": 6391,
      "Ġchosen": 6392,
      "pert": 6393,
      "ĠMassachusetts": 6394,
      "Ġnearby": 6395,
      "Ġsamples": 6396,
      "Ġtypical": 6397,
      "worth": 6398,
      "Ġroof": 6399,
      "ĠKnow": 6400,
      "Ġsustainable": 6401,
      "ĠFar": 6402,
      "Ġacts": 6403,
      "gers": 6404,
      "Good": 6405,
      "2012": 6406,
      "Ġcalc": 6407,
      "Comp": 6408,
      "ĠJack": 6409,
      ".;": 6410,
      "Ġcircumst": 6411,
      "acher": 6412,
      "ĠHand": 6413,
      "ĠVis": 6414,
      "ĠJun": 6415,
      "rics": 6416,
      "2014": 6417,
      "Ġ1940": 6418,
      "lishing": 6419,
      "enger": 6420,
      "Ġanxiety": 6421,
      "oven": 6422,
      "Ġfruits": 6423,
      "Ġatmosphere": 6424,
      "mary": 6425,
      "Ġbroadcast": 6426,
      "burgh": 6427,
      "Ġwelcome": 6428,
      "Ġbrown": 6429,
      "ormal": 6430,
      "ench": 6431,
      "Ġfixed": 6432,
      "ceive": 6433,
      "ĠWales": 6434,
      "lick": 6435,
      "ht": 6436,
      "Ġenemy": 6437,
      "Ġprepare": 6438,
      "Ġ1986": 6439,
      "Ġdiscovery": 6440,
      "Ġaccident": 6441,
      "Ġeastern": 6442,
      "Ġcrown": 6443,
      "Ġideal": 6444,
      "Ġfunding": 6445,
      "Ġdocuments": 6446,
      "Ġviews": 6447,
      "Ġliquid": 6448,
      "55": 6449,
      "Ġemail": 6450,
      "Ġconvent": 6451,
      "ĠDise": 6452,
      "ĠTop": 6453,
      "Ġcrisis": 6454,
      "sk": 6455,
      "ĠEst": 6456,
      "Ġauthorities": 6457,
      "gian": 6458,
      "ructions": 6459,
      "Ġmit": 6460,
      "ĠFamily": 6461,
      "Ġvital": 6462,
      "Ġdriving": 6463,
      "Ġ1987": 6464,
      "Ġemergency": 6465,
      "olly": 6466,
      "Ġdeclared": 6467,
      "Ġpoison": 6468,
      "06": 6469,
      "Ġstreet": 6470,
      "rive": 6471,
      "Ġ36": 6472,
      "ĠBoy": 6473,
      "aun": 6474,
      "ĠReview": 6475,
      "Ġchair": 6476,
      "Ġhabitat": 6477,
      "Ġbold": 6478,
      "ador": 6479,
      "Ġflex": 6480,
      "Ġtall": 6481,
      "Ġpair": 6482,
      "ĠEarly": 6483,
      "Ġecosystem": 6484,
      "ova": 6485,
      "Ġphenomen": 6486,
      "omach": 6487,
      "oir": 6488,
      "ifications": 6489,
      "2008": 6490,
      "Ġsuffering": 6491,
      "eries": 6492,
      "ĠSong": 6493,
      "Ġjourney": 6494,
      "Ġescape": 6495,
      "RA": 6496,
      "Ġregist": 6497,
      "Ġexplained": 6498,
      "OT": 6499,
      "Ste": 6500,
      "ĠMistress": 6501,
      "Ġborder": 6502,
      "ĠFle": 6503,
      "ady": 6504,
      "ĠAdminist": 6505,
      "Ġelectrical": 6506,
      "Ġfighting": 6507,
      "Ġclick": 6508,
      "Ġfacts": 6509,
      "ĠSar": 6510,
      "ĠBooks": 6511,
      "ĠDec": 6512,
      "rine": 6513,
      "stra": 6514,
      "ushing": 6515,
      "Ġundert": 6516,
      "Ġsurpris": 6517,
      "Ġsituations": 6518,
      "Ġassistance": 6519,
      "yan": 6520,
      "ĠAI": 6521,
      "Ġpossibly": 6522,
      "Ġstret": 6523,
      "Ġconfirmed": 6524,
      "ograp": 6525,
      "ĠMicro": 6526,
      "Ġrepresents": 6527,
      "ĠKent": 6528,
      "iac": 6529,
      "Ð¾": 6530,
      "Ġachieved": 6531,
      "andon": 6532,
      "throp": 6533,
      "ĠHung": 6534,
      "ĠPen": 6535,
      "Ġminimum": 6536,
      "angers": 6537,
      "Ġdetailed": 6538,
      "ĠLabor": 6539,
      "ĠAssembly": 6540,
      "Ġcrew": 6541,
      "Ġdiagnosis": 6542,
      "Ġpurchase": 6543,
      "Ġinvestment": 6544,
      "icon": 6545,
      "Ġtrad": 6546,
      "ĠData": 6547,
      "Ġshut": 6548,
      "shire": 6549,
      "cycl": 6550,
      "Ġcounty": 6551,
      "ĠFrancisco": 6552,
      "Ġfaster": 6553,
      "Ġexternal": 6554,
      "ulpt": 6555,
      "Ġscene": 6556,
      "Ġgather": 6557,
      "ĠJohnson": 6558,
      "bra": 6559,
      "izabeth": 6560,
      "ĠVe": 6561,
      "Ġstem": 6562,
      "Ġprogramming": 6563,
      "Ġproducing": 6564,
      "ĠAS": 6565,
      "asant": 6566,
      "Ġ*": 6567,
      "Ġflower": 6568,
      "Ġmedium": 6569,
      "Ġregularly": 6570,
      "Ġtrouble": 6571,
      "Ġcontinuous": 6572,
      "ĠPak": 6573,
      "Ġunion": 6574,
      "Ġmeasured": 6575,
      "Ġperiods": 6576,
      "owed": 6577,
      "ĠAuthor": 6578,
      "ouri": 6579,
      "2011": 6580,
      "ĠConference": 6581,
      "Ġcapable": 6582,
      "Ġpowers": 6583,
      "Ġkinds": 6584,
      "center": 6585,
      "Ġmurder": 6586,
      "Ġadding": 6587,
      "awn": 6588,
      "Ġperspective": 6589,
      "Ġholds": 6590,
      "Ġhttps": 6591,
      "isted": 6592,
      "Ġentirely": 6593,
      "VID": 6594,
      "Ġacknow": 6595,
      "Ġpull": 6596,
      "Ġcourses": 6597,
      "Ġfilled": 6598,
      "ION": 6599,
      "Ġclaimed": 6600,
      "icious": 6601,
      "ĠGeorgia": 6602,
      "Ġtail": 6603,
      "Ġargument": 6604,
      "Ġgrace": 6605,
      "Art": 6606,
      "ĠGuard": 6607,
      "Ġbusinesses": 6608,
      "Ġlesson": 6609,
      "orious": 6610,
      "ĠFred": 6611,
      "Ġrestrict": 6612,
      "Ġsuffered": 6613,
      "Ġmagazine": 6614,
      "mond": 6615,
      "ĠProt": 6616,
      "Ġsupplement": 6617,
      "Ġmarry": 6618,
      "ĠCreat": 6619,
      "Ġobtain": 6620,
      "IL": 6621,
      "ĠPsych": 6622,
      "Ġneut": 6623,
      "Ġacquired": 6624,
      "Ġpurs": 6625,
      "ĠGentleman": 6626,
      "Ġhur": 6627,
      "iÄĩ": 6628,
      "Ġ1984": 6629,
      "ĠOlympics": 6630,
      "Ġmoist": 6631,
      "ucky": 6632,
      "Ġtoxic": 6633,
      "Ġgovernments": 6634,
      "2000": 6635,
      "ĠLy": 6636,
      "Ġselection": 6637,
      "Ġentertain": 6638,
      "Ġ300": 6639,
      "ĠNASA": 6640,
      "Ð°": 6641,
      "ĠPhilipp": 6642,
      "Ġthr": 6643,
      "aints": 6644,
      "asty": 6645,
      "Ġcomponent": 6646,
      "ditionally": 6647,
      "Ġearn": 6648,
      "ĠLearning": 6649,
      "Ġsought": 6650,
      "Ġdrum": 6651,
      "ĠFree": 6652,
      "ĠAsian": 6653,
      "yal": 6654,
      "Ġoral": 6655,
      "Ġchemicals": 6656,
      "Ġreward": 6657,
      "Ġspeaking": 6658,
      "ogy": 6659,
      "aska": 6660,
      "ĠThree": 6661,
      "Trans": 6662,
      "Ġbiological": 6663,
      "ela": 6664,
      "Ġblind": 6665,
      "Ġpersonnel": 6666,
      "Ġlatest": 6667,
      "ĠSat": 6668,
      "Ġhundreds": 6669,
      "ĠMot": 6670,
      "Ġmetab": 6671,
      "Ġscript": 6672,
      "ĠFilm": 6673,
      "Ġaudience": 6674,
      "owers": 6675,
      "Ġextensive": 6676,
      "ache": 6677,
      "Ġshop": 6678,
      "umin": 6679,
      "Ġapart": 6680,
      "Ġpolitics": 6681,
      "ĠBible": 6682,
      "Ġtested": 6683,
      "Ġdiverse": 6684,
      "Ġliver": 6685,
      "ackson": 6686,
      "Ġinfrastructure": 6687,
      "ĠBell": 6688,
      "osite": 6689,
      "rons": 6690,
      "inson": 6691,
      "Ġsmart": 6692,
      "Ġskill": 6693,
      "Ġrub": 6694,
      "Ġsatell": 6695,
      "Ġconsequences": 6696,
      "igation": 6697,
      "ĠWhere": 6698,
      "Ġsomewhat": 6699,
      "76": 6700,
      "outs": 6701,
      "coming": 6702,
      "iology": 6703,
      "rors": 6704,
      "Ġdelay": 6705,
      "85": 6706,
      "Ġplot": 6707,
      "Ġphone": 6708,
      "Bec": 6709,
      "ĠSpecial": 6710,
      "aka": 6711,
      "Mad": 6712,
      "EE": 6713,
      "ĠBu": 6714,
      "BN": 6715,
      "Ġfurn": 6716,
      "ĠHoly": 6717,
      "Ġformal": 6718,
      "Ġwinning": 6719,
      "Ġuns": 6720,
      "ogether": 6721,
      "Ġordered": 6722,
      "Ġterritory": 6723,
      "Ġtur": 6724,
      "Ġmovements": 6725,
      "ĠHam": 6726,
      "Ġfiles": 6727,
      "Ġworldwide": 6728,
      "Ġstanding": 6729,
      "Ġpainting": 6730,
      "ĠColumbia": 6731,
      "inking": 6732,
      "Ġ1930": 6733,
      "Though": 6734,
      "Ġvocals": 6735,
      "Ġlocations": 6736,
      "Ġparticles": 6737,
      "Ġproof": 6738,
      "Ġresolution": 6739,
      "Ġconstructed": 6740,
      "Ġedge": 6741,
      "Ġtreatments": 6742,
      "ĠFer": 6743,
      "ĠStep": 6744,
      "Ġcovers": 6745,
      "Ġfoundation": 6746,
      "ensions": 6747,
      "Ġwire": 6748,
      "Ġstages": 6749,
      "mann": 6750,
      "Ġapproaches": 6751,
      "Ġgranted": 6752,
      "ĠKen": 6753,
      "Ġmonitoring": 6754,
      "ĠConstitution": 6755,
      "Ġnutrients": 6756,
      "Ġincreasingly": 6757,
      "weight": 6758,
      "Ġimpacts": 6759,
      "Ġpassion": 6760,
      "Ġ32": 6761,
      "imental": 6762,
      "vy": 6763,
      "urches": 6764,
      "Ġengage": 6765,
      "Ġexplains": 6766,
      "Ġassigned": 6767,
      "owing": 6768,
      "Ġtaste": 6769,
      "ĠRom": 6770,
      "Ġaer": 6771,
      "atever": 6772,
      "Ġwis": 6773,
      "ĠJeff": 6774,
      "Ġdefeated": 6775,
      "Ġafford": 6776,
      "Ġconcentration": 6777,
      "iary": 6778,
      "ĠHospital": 6779,
      "Ġmobile": 6780,
      "icide": 6781,
      "ĠWhe": 6782,
      "inations": 6783,
      "Ġfib": 6784,
      "ework": 6785,
      "Ġspok": 6786,
      "DF": 6787,
      "Ġunable": 6788,
      "BA": 6789,
      "Ġdescend": 6790,
      "Ġpig": 6791,
      "Ġnewly": 6792,
      "Ġbudget": 6793,
      "Ġstarts": 6794,
      "Ġaccurate": 6795,
      "ampion": 6796,
      "ao": 6797,
      "Ġarts": 6798,
      "Ġspiritual": 6799,
      "Ġtransition": 6800,
      "osm": 6801,
      "Ġinstruct": 6802,
      "rary": 6803,
      "Pre": 6804,
      "Ġdescribes": 6805,
      "Ġrapidly": 6806,
      "Ġfundamental": 6807,
      "ĠFestival": 6808,
      "Ġ1985": 6809,
      "erals": 6810,
      "Ġpositions": 6811,
      "ĠUp": 6812,
      "ĠKorea": 6813,
      "ulin": 6814,
      "asy": 6815,
      "ĠSign": 6816,
      "Ġbag": 6817,
      "Ġcouncil": 6818,
      "sen": 6819,
      "Ġid": 6820,
      "Ġwindow": 6821,
      "Ġcloud": 6822,
      "Ġresulted": 6823,
      "ifies": 6824,
      "zer": 6825,
      "Ġdepth": 6826,
      "Ġgained": 6827,
      "Ġrepeated": 6828,
      "Ġplate": 6829,
      "ĠThrough": 6830,
      "ficial": 6831,
      "Ġturns": 6832,
      "aya": 6833,
      "Ġsuccessfully": 6834,
      "Ġmarg": 6835,
      "orith": 6836,
      "Ġwise": 6837,
      "Ġcontrovers": 6838,
      "Ġburied": 6839,
      "ivered": 6840,
      "Ġju": 6841,
      "2006": 6842,
      "Ġimmun": 6843,
      "ĠColon": 6844,
      "ellect": 6845,
      "cluding": 6846,
      "Career": 6847,
      "ĠNatural": 6848,
      "Ġhate": 6849,
      "ila": 6850,
      "Ġdefense": 6851,
      "Ġaw": 6852,
      "Ġcolors": 6853,
      "Ġnurs": 6854,
      "Notes": 6855,
      "ĠIran": 6856,
      "Ġinstruction": 6857,
      "Ġpotentially": 6858,
      "Ġvisible": 6859,
      "ING": 6860,
      "\")": 6861,
      "athe": 6862,
      "Ġphr": 6863,
      "Ġpassage": 6864,
      "ĠControl": 6865,
      "Ġmanufacturing": 6866,
      "Ġengaged": 6867,
      "Ġdescription": 6868,
      "Ġcommitted": 6869,
      "hee": 6870,
      "Ġowner": 6871,
      "Ġprev": 6872,
      "Ġhung": 6873,
      "Ġsimpl": 6874,
      "Ġ1945": 6875,
      "indu": 6876,
      "ĠSund": 6877,
      "ĠStan": 6878,
      "cons": 6879,
      "race": 6880,
      "Ġaffects": 6881,
      "ĠPeace": 6882,
      "ĠCommunity": 6883,
      "Ġworst": 6884,
      "ĠSuch": 6885,
      "Ġestablishments": 6886,
      "Ġabandon": 6887,
      "Ġdepends": 6888,
      "].": 6889,
      "Ġpapers": 6890,
      "Ġrecovery": 6891,
      "Ġnaturally": 6892,
      "ĠDie": 6893,
      "Ġhero": 6894,
      "gs": 6895,
      "%)": 6896,
      "02": 6897,
      "Ġfacilit": 6898,
      "arsh": 6899,
      "Ã±": 6900,
      "point": 6901,
      "ilms": 6902,
      "Ġcrops": 6903,
      "Ġprices": 6904,
      "Ġstick": 6905,
      "ĠIN": 6906,
      "ĠAmb": 6907,
      "ĠColorado": 6908,
      "ested": 6909,
      "Like": 6910,
      "Ġnit": 6911,
      "Ġcomposition": 6912,
      "Ġreact": 6913,
      "raine": 6914,
      "ctic": 6915,
      "Ġerror": 6916,
      "Ġconstitution": 6917,
      "HO": 6918,
      "Ġmuscles": 6919,
      "ĠBow": 6920,
      "while": 6921,
      "Ġpermanent": 6922,
      "Ġstood": 6923,
      "ĠInstead": 6924,
      "name": 6925,
      "ĠSa": 6926,
      "osph": 6927,
      "ĠMajor": 6928,
      "Ġwilling": 6929,
      "Ġwave": 6930,
      "Ġtalking": 6931,
      "Ġcurriculum": 6932,
      "ĠDevil": 6933,
      "unc": 6934,
      "2009": 6935,
      "Dr": 6936,
      "iti": 6937,
      "Ġinfected": 6938,
      "Ġsinger": 6939,
      "Ġastron": 6940,
      "Ġrand": 6941,
      "Ġdecline": 6942,
      "ĠUsing": 6943,
      "Ġagriculture": 6944,
      "Ġemployed": 6945,
      "Ġultimately": 6946,
      "Ġcrow": 6947,
      "alysis": 6948,
      "ĠLords": 6949,
      "omer": 6950,
      "89": 6951,
      "Ġadm": 6952,
      "Ġcontemporary": 6953,
      "itter": 6954,
      "alm": 6955,
      "ĠIslands": 6956,
      "ĠEs": 6957,
      "Ġentry": 6958,
      "Ġ1920": 6959,
      "Ġserves": 6960,
      "Ġextract": 6961,
      "Ġax": 6962,
      "Ġstrike": 6963,
      "ĠSenate": 6964,
      "Ġancest": 6965,
      "66": 6966,
      "IA": 6967,
      "Ġcart": 6968,
      "ĠPoland": 6969,
      "Ġwine": 6970,
      "ĠCommand": 6971,
      "chen": 6972,
      "Ġinternet": 6973,
      "level": 6974,
      "Ġconscious": 6975,
      "ĠDam": 6976,
      "Ġsubstance": 6977,
      "Ġabund": 6978,
      "Ġheads": 6979,
      "Ġsequence": 6980,
      "ĠScient": 6981,
      "Ġsentence": 6982,
      "ĠSeries": 6983,
      "ĠOnly": 6984,
      "Ġpolitician": 6985,
      "Ġdust": 6986,
      "eness": 6987,
      "ĠVan": 6988,
      "ĠWay": 6989,
      "Ġ1982": 6990,
      "Ġpartner": 6991,
      "Ġnetworks": 6992,
      "Ġinjuries": 6993,
      "ja": 6994,
      "ĠFair": 6995,
      "Ġrespectively": 6996,
      "ĠTHE": 6997,
      "Ġtips": 6998,
      "hemical": 6999,
      "roduct": 7000,
      "Ġdecrease": 7001,
      "Ġscar": 7002,
      "Because": 7003,
      "ĠViet": 7004,
      "ĠSpring": 7005,
      "ĠAbout": 7006,
      "Co": 7007,
      "arks": 7008,
      "Ġderived": 7009,
      "adelph": 7010,
      "Ġcolour": 7011,
      "ĠMid": 7012,
      "ĠOF": 7013,
      "unning": 7014,
      "Ġdiscussed": 7015,
      "claim": 7016,
      "iu": 7017,
      "Ġroles": 7018,
      "Ġcognitive": 7019,
      "unch": 7020,
      "ĠCarl": 7021,
      "Ġages": 7022,
      "ĠYet": 7023,
      "Ġexplan": 7024,
      "Ġreceiving": 7025,
      "Ġparam": 7026,
      "Over": 7027,
      "ĠJim": 7028,
      "Ġought": 7029,
      "Ġstream": 7030,
      "Ġvaluable": 7031,
      "rif": 7032,
      "urrent": 7033,
      "ĠNaz": 7034,
      "Ġmaintenance": 7035,
      "Ġconference": 7036,
      "ĠAst": 7037,
      "Ġbatt": 7038,
      "Ġgro": 7039,
      "ĠRam": 7040,
      "Ġunderstood": 7041,
      "LA": 7042,
      "free": 7043,
      "Ġdiversity": 7044,
      "omic": 7045,
      "uma": 7046,
      "Ġfeelings": 7047,
      "Ã©e": 7048,
      "Ġthanks": 7049,
      "Ġ75": 7050,
      "Ġchapter": 7051,
      "ĠGoogle": 7052,
      "oln": 7053,
      "Ġplanned": 7054,
      "Ġ1979": 7055,
      "77": 7056,
      "Ġring": 7057,
      "Ġgreatly": 7058,
      "pes": 7059,
      "Ġ()": 7060,
      "ĠDig": 7061,
      "ĠBa": 7062,
      "Ġrandom": 7063,
      "Ġconfess": 7064,
      "estyle": 7065,
      "iger": 7066,
      "apping": 7067,
      "Ã§": 7068,
      "ĠOl": 7069,
      "Ġinstitution": 7070,
      "mble": 7071,
      "Ġswim": 7072,
      "Ġinstrument": 7073,
      "bb": 7074,
      "ĠLanguage": 7075,
      "ĠMoon": 7076,
      "ĠBlue": 7077,
      "Ps": 7078,
      "Ġinches": 7079,
      "Even": 7080,
      "car": 7081,
      "Ġestate": 7082,
      "Ġdin": 7083,
      "etime": 7084,
      "ĠNetwork": 7085,
      "ĠInn": 7086,
      "Ġproud": 7087,
      "Ġindex": 7088,
      "Ġfluid": 7089,
      "ĠSupreme": 7090,
      "Ġfro": 7091,
      "Ġprinciple": 7092,
      "eli": 7093,
      "usal": 7094,
      "onym": 7095,
      "Ġmeth": 7096,
      "ĠEss": 7097,
      "Ġexpensive": 7098,
      "Shall": 7099,
      "Ġven": 7100,
      "ĠCastle": 7101,
      "Ġtongue": 7102,
      "Ġbones": 7103,
      "Us": 7104,
      "Ġindu": 7105,
      "Ġcruel": 7106,
      "look": 7107,
      "Ġequival": 7108,
      "Ġwhilst": 7109,
      "Ġstudying": 7110,
      "Ġmoral": 7111,
      "ĠWilliams": 7112,
      "ocation": 7113,
      "Ġload": 7114,
      "ĠEnvironmental": 7115,
      "they": 7116,
      "ĠIndust": 7117,
      "Ġbranch": 7118,
      "adelphia": 7119,
      "ocracy": 7120,
      "Ġparalle": 7121,
      "Ġrecording": 7122,
      "ype": 7123,
      "Ġ1983": 7124,
      "night": 7125,
      "Ġstomach": 7126,
      "Ġ1972": 7127,
      "there": 7128,
      "ouses": 7129,
      "Ġvolunte": 7130,
      "Ġoutcomes": 7131,
      "Ġsculpt": 7132,
      "Ġdomin": 7133,
      "ricts": 7134,
      "Ġstatistics": 7135,
      "Ġproved": 7136,
      "Ġpublication": 7137,
      "Ġhelpful": 7138,
      "ĠMax": 7139,
      "ĠLuc": 7140,
      "Ġprocedures": 7141,
      "Ġelections": 7142,
      "ĠBh": 7143,
      "Ġrelation": 7144,
      "Ġcaptured": 7145,
      "Ġmarine": 7146,
      "Ġbehaviour": 7147,
      "ĠAtlantic": 7148,
      "Ġpassing": 7149,
      "esh": 7150,
      "Ġdecade": 7151,
      "Ġforests": 7152,
      "ĠGirl": 7153,
      "Ġathlet": 7154,
      "Ġ1981": 7155,
      "86": 7156,
      "Ġcreative": 7157,
      "Ġsupporting": 7158,
      "ĠPC": 7159,
      "Ġproducer": 7160,
      "Ġdelivered": 7161,
      "ĠÅ": 7162,
      "Ġblog": 7163,
      "ĠProp": 7164,
      "Ġdisturb": 7165,
      "ĠAlexander": 7166,
      "Ġmatters": 7167,
      "Ġagencies": 7168,
      "Ġdrawing": 7169,
      "ĠSecurity": 7170,
      "Ġdatabase": 7171,
      "Ġaren": 7172,
      "Ġexecutive": 7173,
      "Ġshift": 7174,
      "Ġlect": 7175,
      "Ġapproved": 7176,
      "Ġmassive": 7177,
      "ĠGovernor": 7178,
      "ĠIns": 7179,
      "ĠLie": 7180,
      "04": 7181,
      "abitants": 7182,
      "Ġlandscape": 7183,
      "Ġsuitable": 7184,
      "Ġnewspaper": 7185,
      "rue": 7186,
      "ĠJackson": 7187,
      "ĠBlood": 7188,
      "ums": 7189,
      "Ġlessons": 7190,
      "Ġfacility": 7191,
      "Ġmulti": 7192,
      "Ġamaz": 7193,
      "Ġtrained": 7194,
      "Ġpromise": 7195,
      "2005": 7196,
      "ĠHot": 7197,
      "Ġboys": 7198,
      "ĠMake": 7199,
      "Ġharvest": 7200,
      "ibilities": 7201,
      "yard": 7202,
      "Ġmamm": 7203,
      "List": 7204,
      "Ġsel": 7205,
      "Before": 7206,
      "ĠUt": 7207,
      "Ġcultiv": 7208,
      "Spe": 7209,
      "Ġkiss": 7210,
      "Ġinvent": 7211,
      "ipping": 7212,
      "ĠPur": 7213,
      "Ġholding": 7214,
      "ĠReport": 7215,
      "Ġcontained": 7216,
      "Ġbot": 7217,
      "Ġdye": 7218,
      "Ġrecognition": 7219,
      "Ġmovie": 7220,
      "Ġoperated": 7221,
      "ĠCOVID": 7222,
      "Ġcandidate": 7223,
      "ĠMissouri": 7224,
      "ĠAdv": 7225,
      "Ġvessels": 7226,
      "ĠExt": 7227,
      "96": 7228,
      "Ġsurvive": 7229,
      "such": 7230,
      "Ġremark": 7231,
      "ĠElizabeth": 7232,
      "Ġbrings": 7233,
      "ĠExpl": 7234,
      "ĠLim": 7235,
      "ĠWho": 7236,
      "Ġcomprehensive": 7237,
      "eller": 7238,
      "acco": 7239,
      "TCP": 7240,
      "ĠEll": 7241,
      "Ġshell": 7242,
      "ĠLadies": 7243,
      "Ġstored": 7244,
      "Ġarrange": 7245,
      "Ġpictures": 7246,
      "Ġchildhood": 7247,
      "ĠLittle": 7248,
      "Ġwhereas": 7249,
      "ĠRelig": 7250,
      "ais": 7251,
      "Ġstruggle": 7252,
      "ĠJo": 7253,
      "ĠServices": 7254,
      "CT": 7255,
      "Ġtheme": 7256,
      "Ġenhance": 7257,
      "ushed": 7258,
      "Ġchannel": 7259,
      "Ġpron": 7260,
      "Ġinstruments": 7261,
      "Rep": 7262,
      "ĠLine": 7263,
      "Ġpossibility": 7264,
      "ĠPlant": 7265,
      "Ġminute": 7266,
      "ĠCambridge": 7267,
      "hyth": 7268,
      "his": 7269,
      "inally": 7270,
      "inem": 7271,
      "Ġopposite": 7272,
      "Ġbattery": 7273,
      "Ġexperiments": 7274,
      "called": 7275,
      "Ġthrow": 7276,
      "Ġhistoric": 7277,
      "Ġcoff": 7278,
      "arr": 7279,
      "Ġprominent": 7280,
      "last": 7281,
      "Ġsurvival": 7282,
      "ĠAndrew": 7283,
      "'m": 7284,
      "ĠCop": 7285,
      "ĠEth": 7286,
      "Ġmillions": 7287,
      "ĠPot": 7288,
      "sis": 7289,
      "Ġalgorith": 7290,
      "Bi": 7291,
      "Ġfought": 7292,
      "Ġtransferred": 7293,
      "Ġexpat": 7294,
      "Ġpup": 7295,
      "Ġrecognize": 7296,
      "avor": 7297,
      "Ġresident": 7298,
      "Ġsplit": 7299,
      "Ġwalking": 7300,
      "Char": 7301,
      "Ġmac": 7302,
      "uns": 7303,
      "ĠUr": 7304,
      "raining": 7305,
      "net": 7306,
      "ĠTour": 7307,
      "ĠTeam": 7308,
      "Ġzone": 7309,
      "Ġquiet": 7310,
      "Ġcircuit": 7311,
      "Ġalter": 7312,
      "Ġsurf": 7313,
      "Ġrecept": 7314,
      "Ġswitch": 7315,
      "uster": 7316,
      "Ġhousing": 7317,
      "Ġagency": 7318,
      "Ġtank": 7319,
      "Ġtoler": 7320,
      "National": 7321,
      "iest": 7322,
      "htt": 7323,
      "Ġnormally": 7324,
      "lie": 7325,
      "eping": 7326,
      "Ġbiggest": 7327,
      "Ġpregnancy": 7328,
      "ĠBang": 7329,
      "Ġsake": 7330,
      "raq": 7331,
      "CD": 7332,
      "Ac": 7333,
      "bell": 7334,
      "Ġneck": 7335,
      "Ġfab": 7336,
      "ĠAlbert": 7337,
      "Ġprincipal": 7338,
      "Ġ<": 7339,
      "ilation": 7340,
      "Ġmand": 7341,
      "Ġrefuge": 7342,
      "imens": 7343,
      "ito": 7344,
      "ĠJones": 7345,
      "Ġearned": 7346,
      "ĠKenn": 7347,
      "Ġconfidence": 7348,
      "Ġanswers": 7349,
      "ilty": 7350,
      "ĠGentlemen": 7351,
      "Ġcong": 7352,
      "opher": 7353,
      "lements": 7354,
      "Ġdefic": 7355,
      "98": 7356,
      "Ġbread": 7357,
      "gend": 7358,
      "ĠBerlin": 7359,
      "ĠMain": 7360,
      "',": 7361,
      "Ġcircumstances": 7362,
      "full": 7363,
      "SP": 7364,
      "Ġho": 7365,
      "Ġphilosophy": 7366,
      "Ġfunds": 7367,
      "Ġweapons": 7368,
      "ĠRog": 7369,
      "dis": 7370,
      "law": 7371,
      "Ġpump": 7372,
      "Ġparticipate": 7373,
      "abits": 7374,
      "ĠThough": 7375,
      "Ġdisch": 7376,
      "ĠSecretary": 7377,
      "Ġaccounts": 7378,
      "Ġdepos": 7379,
      "Ġlegs": 7380,
      "ker": 7381,
      "Ġtransmission": 7382,
      "vard": 7383,
      "BO": 7384,
      "Ġ)": 7385,
      "ditional": 7386,
      "ĠDisc": 7387,
      "Ġ2023": 7388,
      "Ġtournament": 7389,
      "this": 7390,
      "Ġdesigns": 7391,
      "ĠAnton": 7392,
      "Ġreject": 7393,
      "Ġ1976": 7394,
      "ivery": 7395,
      "Ġgre": 7396,
      "Ġprevention": 7397,
      "Ġproduces": 7398,
      "she": 7399,
      "oval": 7400,
      "Ġrising": 7401,
      "ĠDespite": 7402,
      "ĠOs": 7403,
      "Ġattempts": 7404,
      "fish": 7405,
      "ĠBal": 7406,
      "Ġtowns": 7407,
      "Ġcounsel": 7408,
      "arant": 7409,
      "Ġsales": 7410,
      "Ġfet": 7411,
      "ĠJersey": 7412,
      "ascular": 7413,
      "utation": 7414,
      "Ġexceed": 7415,
      "Ġconven": 7416,
      "Ġcombat": 7417,
      "Ġfalls": 7418,
      "een": 7419,
      "Ġhealthcare": 7420,
      "Ġpoliticians": 7421,
      "vity": 7422,
      "Ġdebate": 7423,
      "Ġelectronic": 7424,
      "ĠAwards": 7425,
      "ĠThose": 7426,
      "ĠGet": 7427,
      "Ġ1968": 7428,
      "Men": 7429,
      "Ġreaders": 7430,
      "ĠLater": 7431,
      "dule": 7432,
      "Ġsyndrome": 7433,
      "ĠUl": 7434,
      "Stud": 7435,
      "Ġabsence": 7436,
      "Ġdism": 7437,
      "ibli": 7438,
      "Ġroyal": 7439,
      "low": 7440,
      "asive": 7441,
      "Ġment": 7442,
      "ĠBishop": 7443,
      "Ġsupposed": 7444,
      "Ġfra": 7445,
      "ĠÂ£": 7446,
      "ĠBase": 7447,
      "Ġstudio": 7448,
      "Ġworthy": 7449,
      "inction": 7450,
      "ĠStation": 7451,
      "Ġarmed": 7452,
      "Ġretired": 7453,
      "Ġrailway": 7454,
      "Ġethnic": 7455,
      "Ġindependence": 7456,
      "itudes": 7457,
      "Ġvac": 7458,
      "Ġdiscip": 7459,
      "Ġshame": 7460,
      "ori": 7461,
      "uties": 7462,
      "opes": 7463,
      "Thy": 7464,
      "Ġimmediate": 7465,
      "Ġassistant": 7466,
      "Ġobst": 7467,
      "Ġfifth": 7468,
      "lav": 7469,
      "aser": 7470,
      "aret": 7471,
      "SS": 7472,
      "Ġempt": 7473,
      "ureau": 7474,
      "Ġunus": 7475,
      "Ġexpansion": 7476,
      "ĠOk": 7477,
      "Ġcm": 7478,
      "Ġgenerated": 7479,
      "Ġinner": 7480,
      "ocked": 7481,
      "ĠPlace": 7482,
      "Ġstrict": 7483,
      "ĠNative": 7484,
      "97": 7485,
      "cules": 7486,
      "ĠMajesty": 7487,
      "tes": 7488,
      "Ġwing": 7489,
      "Ġframe": 7490,
      "UR": 7491,
      "ĠIP": 7492,
      "Ġfer": 7493,
      "Ġrecip": 7494,
      "Their": 7495,
      "Ġimproving": 7496,
      "ĠPy": 7497,
      "bes": 7498,
      "chant": 7499,
      "ĠTro": 7500,
      "Ġ1969": 7501,
      "Ġles": 7502,
      "Ġadvert": 7503,
      "Ġbroke": 7504,
      "Ġwarrant": 7505,
      "Ġahead": 7506,
      "ĠLow": 7507,
      "âĢĻ.": 7508,
      "Ġemployment": 7509,
      "Sw": 7510,
      "ĠVirt": 7511,
      "Ġrelief": 7512,
      "Ġinvolving": 7513,
      "ĠAny": 7514,
      "Ġratio": 7515,
      "Ġmm": 7516,
      "vironments": 7517,
      "olt": 7518,
      "Ġbought": 7519,
      "ĠFed": 7520,
      "ployment": 7521,
      "Ġvillages": 7522,
      "Ġbomb": 7523,
      "ĠAgricult": 7524,
      "Ġprompt": 7525,
      "Ġflo": 7526,
      "Ġglad": 7527,
      "ymph": 7528,
      "Ġindicates": 7529,
      "Ġingred": 7530,
      "Ġ1975": 7531,
      "incoln": 7532,
      "ĠDun": 7533,
      "Ġdecide": 7534,
      "emet": 7535,
      "ĠWorks": 7536,
      "ĠJr": 7537,
      "Ð¸": 7538,
      "Ġloose": 7539,
      "Ġrepair": 7540,
      "Ġcab": 7541,
      "iov": 7542,
      "ĠChristians": 7543,
      "2004": 7544,
      "Ġinspired": 7545,
      "Ġtemple": 7546,
      "Ass": 7547,
      "AA": 7548,
      "Ha": 7549,
      "ifts": 7550,
      "Ġdesired": 7551,
      "Ġmild": 7552,
      "Ġhighlight": 7553,
      "Ġnegot": 7554,
      "ĠPM": 7555,
      "Ġsupplies": 7556,
      "izer": 7557,
      "Ġadequ": 7558,
      "Ġdrama": 7559,
      "Ġcollaboration": 7560,
      "ĠEngineering": 7561,
      "Ġdifficulty": 7562,
      "top": 7563,
      "Ġworship": 7564,
      "Gu": 7565,
      "Ġintellect": 7566,
      "Ġagent": 7567,
      "Ġsevent": 7568,
      "Ġphotograph": 7569,
      "Ġdoctors": 7570,
      "Ġinstalled": 7571,
      "ĠBefore": 7572,
      "ĠCorpor": 7573,
      "Ġwaves": 7574,
      "Ġopposition": 7575,
      "rove": 7576,
      "Ġminim": 7577,
      "IP": 7578,
      "ami": 7579,
      "atern": 7580,
      "icked": 7581,
      "Ġtele": 7582,
      "Ġcorner": 7583,
      "Ġlake": 7584,
      "Ġrig": 7585,
      "Ġcategory": 7586,
      "Ġ1944": 7587,
      "Ġsubsequently": 7588,
      "ĠMrs": 7589,
      "Ġrecycl": 7590,
      "Ġchap": 7591,
      "Ġdiff": 7592,
      "Ġretire": 7593,
      "Ġ1977": 7594,
      "Ġfertil": 7595,
      "Ġfinds": 7596,
      "ĠLew": 7597,
      "Ġapprec": 7598,
      "Ġcomparison": 7599,
      "rox": 7600,
      "Ġpercentage": 7601,
      "oli": 7602,
      "Ġslave": 7603,
      "Brit": 7604,
      "Ġveter": 7605,
      "ĠTemple": 7606,
      "Ġow": 7607,
      "otes": 7608,
      "Ġmaintained": 7609,
      "Ġcomputers": 7610,
      "Ġsensitive": 7611,
      "Ġimplementation": 7612,
      "Ġ1973": 7613,
      "Ġfaced": 7614,
      "Ġactor": 7615,
      "Thus": 7616,
      "ĠEnter": 7617,
      "Ġmining": 7618,
      "IM": 7619,
      "Ġsons": 7620,
      "Ġpool": 7621,
      "Ġgrief": 7622,
      "Ġaged": 7623,
      "Ag": 7624,
      "Ġinhib": 7625,
      "Ġpurchased": 7626,
      "Ðµ": 7627,
      "Ġsolve": 7628,
      "hop": 7629,
      "zed": 7630,
      "Ġcreates": 7631,
      "Ġvirtual": 7632,
      "ĠIndepend": 7633,
      "Ġthinks": 7634,
      "Ġsusp": 7635,
      "Ġcaught": 7636,
      "2003": 7637,
      "illy": 7638,
      "Ġintent": 7639,
      "French": 7640,
      "Ġconcluded": 7641,
      "Ġ1978": 7642,
      "ighth": 7643,
      "Ã³w": 7644,
      "German": 7645,
      "tery": 7646,
      "Ġconclusion": 7647,
      "Ġoffering": 7648,
      "Ġslowly": 7649,
      "EP": 7650,
      "Ġallerg": 7651,
      "thur": 7652,
      "ĠEqu": 7653,
      "ugby": 7654,
      "ĠTrade": 7655,
      "Ġbrave": 7656,
      "lesh": 7657,
      "pass": 7658,
      "real": 7659,
      "orph": 7660,
      "Ġfrequent": 7661,
      "ĠBern": 7662,
      "ĠTurk": 7663,
      "aths": 7664,
      "ĠMD": 7665,
      "ounter": 7666,
      "unct": 7667,
      "ĠAdd": 7668,
      "Ġvide": 7669,
      "Ġcycl": 7670,
      "ĠWife": 7671,
      "Ġ37": 7672,
      "Ġopposed": 7673,
      "Ġsmooth": 7674,
      "Ġinflammation": 7675,
      "Ġgenerate": 7676,
      "ĠMinistry": 7677,
      "Further": 7678,
      "ĠBob": 7679,
      "Ġstroke": 7680,
      "Ġprofessionals": 7681,
      "Ġpersu": 7682,
      "uality": 7683,
      "Ġyours": 7684,
      "fin": 7685,
      "ĠHistoric": 7686,
      "Ġwildlife": 7687,
      "Ġabst": 7688,
      "owa": 7689,
      "Ġenable": 7690,
      "iration": 7691,
      "ĠRadio": 7692,
      "resses": 7693,
      "Ġattached": 7694,
      "Ġdebt": 7695,
      "Ġhorses": 7696,
      "Ġgal": 7697,
      "Ġkilling": 7698,
      "Ġappoint": 7699,
      "Ġ33": 7700,
      "Ġfatal": 7701,
      "Ġseemed": 7702,
      "ĠChristmas": 7703,
      "Ġlimits": 7704,
      "friend": 7705,
      "atus": 7706,
      "Ġsupports": 7707,
      "Ġregul": 7708,
      "Ġmatches": 7709,
      "ĠIndians": 7710,
      "Ġsharp": 7711,
      "Ġdamaged": 7712,
      "utenant": 7713,
      "Ġille": 7714,
      "itals": 7715,
      "una": 7716,
      "ĠPhiladelphia": 7717,
      "Ġadvent": 7718,
      "mina": 7719,
      "TV": 7720,
      "Ġsubsequent": 7721,
      "Ġ65": 7722,
      "Ġtrials": 7723,
      "ĠScottish": 7724,
      "Ġmir": 7725,
      "Ġsections": 7726,
      "ĠSac": 7727,
      "Ġdistributed": 7728,
      "ĠPolit": 7729,
      "oples": 7730,
      "Ġneighborhood": 7731,
      "Ġpip": 7732,
      "Ġtransportation": 7733,
      "Ġfortune": 7734,
      "ĠStudy": 7735,
      "Ġbaseball": 7736,
      "Ġ1974": 7737,
      "ĠProvince": 7738,
      "Ġdies": 7739,
      "Ġcapture": 7740,
      "ĠBed": 7741,
      "ĠDemocratic": 7742,
      "Ġlegislation": 7743,
      "riv": 7744,
      "uman": 7745,
      "ĠName": 7746,
      "Ġdental": 7747,
      "Ġpardon": 7748,
      "Ġoperate": 7749,
      "Ġburning": 7750,
      "ĠSpirit": 7751,
      "rained": 7752,
      "Ġalle": 7753,
      "eed": 7754,
      "atal": 7755,
      "ranch": 7756,
      "?âĢĿ": 7757,
      "Ġaccel": 7758,
      "2015": 7759,
      "UN": 7760,
      "Ġoptim": 7761,
      "ĠCy": 7762,
      "Ġinvestigation": 7763,
      "dy": 7764,
      "Ġlisten": 7765,
      "aired": 7766,
      "Ġconsiderable": 7767,
      "Ġsingles": 7768,
      "Ġmedications": 7769,
      "ruption": 7770,
      "oft": 7771,
      "Ġmechanism": 7772,
      "ĠCreek": 7773,
      "Ġconsistent": 7774,
      "Ġinsurance": 7775,
      "Ġ1971": 7776,
      "Ġteen": 7777,
      "weet": 7778,
      "Ġprovince": 7779,
      "Ġspoke": 7780,
      "ĠWit": 7781,
      "ĠGuide": 7782,
      "Ġmanif": 7783,
      "Ġconcerning": 7784,
      "ĠISBN": 7785,
      "umph": 7786,
      "Ġvirtue": 7787,
      "irus": 7788,
      "operation": 7789,
      "Ġregulations": 7790,
      "Ġhandle": 7791,
      "gans": 7792,
      "Ġraw": 7793,
      "ĠRod": 7794,
      "rator": 7795,
      "Ġ1967": 7796,
      "phone": 7797,
      "App": 7798,
      "CH": 7799,
      "ĠOtt": 7800,
      "Ġcriminal": 7801,
      "Ġsky": 7802,
      "language": 7803,
      "ĠSem": 7804,
      "regon": 7805,
      "ĠNether": 7806,
      "2017": 7807,
      "Ġdiscrim": 7808,
      "iah": 7809,
      "ĠSher": 7810,
      "Ġloves": 7811,
      "venue": 7812,
      "Ke": 7813,
      "ĠTenn": 7814,
      "erly": 7815,
      "Ġsle": 7816,
      "Ġpounds": 7817,
      "rings": 7818,
      "Ġenvironments": 7819,
      "Ġ38": 7820,
      "Ġbeneficial": 7821,
      "ĠHell": 7822,
      "aval": 7823,
      "Ġdestruction": 7824,
      "ĠEmperor": 7825,
      "Ġstring": 7826,
      "elly": 7827,
      "arewell": 7828,
      "ĠSaf": 7829,
      "emetery": 7830,
      "Ġease": 7831,
      "Ġkit": 7832,
      "Ġgrows": 7833,
      "Ġsettlement": 7834,
      "Ġsignals": 7835,
      "yles": 7836,
      "ĠPed": 7837,
      "erior": 7838,
      "ĠPrim": 7839,
      "Ġholy": 7840,
      "ĠAmong": 7841,
      "Ġstrongly": 7842,
      "ĠLat": 7843,
      "Ġspir": 7844,
      "rizona": 7845,
      "Ġcompris": 7846,
      "Cons": 7847,
      "Ġinteraction": 7848,
      "Ġcustomers": 7849,
      "ypes": 7850,
      "Ġdisappe": 7851,
      "ader": 7852,
      "anch": 7853,
      "Ġdow": 7854,
      "ĠWars": 7855,
      "56": 7856,
      "Ġfasc": 7857,
      "Ġtrip": 7858,
      "ef": 7859,
      "idae": 7860,
      "ĠExper": 7861,
      "Ġequivalent": 7862,
      "riers": 7863,
      "93": 7864,
      "Ġactors": 7865,
      "Ġchoices": 7866,
      "Aust": 7867,
      "how": 7868,
      "just": 7869,
      "mn": 7870,
      "rot": 7871,
      "rient": 7872,
      "Ġcarrying": 7873,
      "Ġminister": 7874,
      "nesota": 7875,
      "ĠUnivers": 7876,
      "acent": 7877,
      "occ": 7878,
      "Ġgluc": 7879,
      "Ġalive": 7880,
      "Ġvisited": 7881,
      "Ġhall": 7882,
      "Ġparticipation": 7883,
      "Ġ400": 7884,
      "uzz": 7885,
      "Ġinsects": 7886,
      "Ġfeeding": 7887,
      "ĠPakistan": 7888,
      "Ġdoi": 7889,
      "gov": 7890,
      "ĠPalest": 7891,
      "kind": 7892,
      "Ġca": 7893,
      "Ġobserve": 7894,
      "Ġconcrete": 7895,
      "ĠNation": 7896,
      "Ġtears": 7897,
      "Ġlosing": 7898,
      "using": 7899,
      "^^": 7900,
      "Ġdensity": 7901,
      "Ġfaculty": 7902,
      "Ġexpanded": 7903,
      "Ġliv": 7904,
      "Ġ1964": 7905,
      "Ġputting": 7906,
      "clusive": 7907,
      "Ġelectron": 7908,
      "Ġmachines": 7909,
      "Ġfossil": 7910,
      "Ġmode": 7911,
      "ĠDan": 7912,
      "da": 7913,
      "Ġinteract": 7914,
      "El": 7915,
      "iatric": 7916,
      "ĠAdministration": 7917,
      "Ġlaunch": 7918,
      "have": 7919,
      "hesis": 7920,
      "Ġuniverse": 7921,
      "aren": 7922,
      "Ġhappiness": 7923,
      "ĠIraq": 7924,
      "Ġvon": 7925,
      "Ġsword": 7926,
      "alo": 7927,
      "Ġabroad": 7928,
      "Ġalongside": 7929,
      "making": 7930,
      "BT": 7931,
      "Ġconventional": 7932,
      "%.": 7933,
      "Ġmagnetic": 7934,
      "IR": 7935,
      "Ġcutting": 7936,
      "ĠCE": 7937,
      "Ġmoon": 7938,
      "ĠSet": 7939,
      "uter": 7940,
      "Ġpeak": 7941,
      "Ġinfluenced": 7942,
      "Ġlaboratory": 7943,
      "Ġere": 7944,
      "Ġpreserve": 7945,
      "ieve": 7946,
      "ĠEc": 7947,
      "Ġwond": 7948,
      "ĠDisease": 7949,
      "Ġcloser": 7950,
      "Part": 7951,
      "Ġacting": 7952,
      "Ġconsent": 7953,
      "Ġexists": 7954,
      "Ġ1941": 7955,
      "ardens": 7956,
      "ommod": 7957,
      "olis": 7958,
      "Ġmedication": 7959,
      "LE": 7960,
      "itled": 7961,
      "pread": 7962,
      "Ġhither": 7963,
      "ĠKong": 7964,
      "Ġturning": 7965,
      "ĠPrize": 7966,
      "Ġseconds": 7967,
      "Ġstable": 7968,
      "ĠArms": 7969,
      "Ġresc": 7970,
      "Ġ1942": 7971,
      "Ġframework": 7972,
      "Ġbass": 7973,
      "embers": 7974,
      "Ġmemb": 7975,
      "Ġdecor": 7976,
      "Ġsacred": 7977,
      "Ġreign": 7978,
      "abul": 7979,
      "Ġterror": 7980,
      "Ġharmful": 7981,
      "achel": 7982,
      "Ġrose": 7983,
      "found": 7984,
      "ials": 7985,
      "Ġseeking": 7986,
      "Ġbond": 7987,
      "Pr": 7988,
      "abled": 7989,
      "Ġfate": 7990,
      "ĠSab": 7991,
      "ĠOnt": 7992,
      "ictionary": 7993,
      "ĠGarden": 7994,
      "ibl": 7995,
      "Ġacids": 7996,
      "Ġears": 7997,
      "Ġ1965": 7998,
      "Ġbringing": 7999,
      "MA": 8000,
      "ĠAh": 8001,
      "Ġmurd": 8002,
      "rayed": 8003,
      "ĠCorps": 8004,
      "Ġartificial": 8005,
      "isk": 8006,
      "Ġconce": 8007,
      "CP": 8008,
      "Ġpand": 8009,
      "ĠKorean": 8010,
      "pled": 8011,
      "Christ": 8012,
      "DP": 8013,
      "Ġcultures": 8014,
      "Ġcamera": 8015,
      "2016": 8016,
      "Ġnutrition": 8017,
      "itzer": 8018,
      "Ġvain": 8019,
      "87": 8020,
      "Ġpromoted": 8021,
      "ĠBon": 8022,
      "ĠTrust": 8023,
      "Ġsettled": 8024,
      "Ġvariable": 8025,
      "iy": 8026,
      "Ġsod": 8027,
      "ĠPract": 8028,
      "ĠEU": 8029,
      "Ġdwell": 8030,
      "Ġnotable": 8031,
      "ĠDaniel": 8032,
      "Sm": 8033,
      "ois": 8034,
      "Ġwww": 8035,
      "onto": 8036,
      "Ġresponses": 8037,
      "idespread": 8038,
      "Ġgap": 8039,
      "orted": 8040,
      "ĠMedia": 8041,
      "Ġfed": 8042,
      "Ġdelivery": 8043,
      "Ġcarefully": 8044,
      "uled": 8045,
      "Ġbanks": 8046,
      "left": 8047,
      "Ġresolved": 8048,
      "sm": 8049,
      "Ġforb": 8050,
      "Ġmolecules": 8051,
      "ĠChampionships": 8052,
      "Ġbin": 8053,
      "pton": 8054,
      "92": 8055,
      "Ġtracks": 8056,
      "âĢĻ,": 8057,
      "Ġevil": 8058,
      "Ġclassical": 8059,
      "Ġconnections": 8060,
      "Ġdistricts": 8061,
      "Ġcalling": 8062,
      "lines": 8063,
      "ĠIndones": 8064,
      "World": 8065,
      "ĠLincoln": 8066,
      "ĠOnline": 8067,
      "Ġdomain": 8068,
      "Ġuncertain": 8069,
      "ĠFund": 8070,
      "Ġbesides": 8071,
      "ĠMarsh": 8072,
      "Ġversions": 8073,
      "Back": 8074,
      "Ġfiber": 8075,
      "ĠMarg": 8076,
      "Ġintervention": 8077,
      "Ġconj": 8078,
      "ml": 8079,
      "Ġsharing": 8080,
      "appy": 8081,
      "Films": 8082,
      "ĠTrum": 8083,
      "Ġsmoke": 8084,
      "ĠMethod": 8085,
      "hent": 8086,
      "Ġfur": 8087,
      "Ġtons": 8088,
      "Did": 8089,
      "Ġengineer": 8090,
      "Ġbat": 8091,
      "Ġdesp": 8092,
      "Ġwarming": 8093,
      "rell": 8094,
      "Ġmarkets": 8095,
      "Ġpity": 8096,
      "Ġspending": 8097,
      "chang": 8098,
      "Ġaccum": 8099,
      "ĠGreece": 8100,
      "Ġdraft": 8101,
      "Ġvolt": 8102,
      "Ġparallel": 8103,
      "iscons": 8104,
      "otton": 8105,
      "Ġaccord": 8106,
      "ĠLiter": 8107,
      "Ġproportion": 8108,
      "Ġorders": 8109,
      "Ġlots": 8110,
      "ĠFC": 8111,
      "Ġfewer": 8112,
      "Ġintake": 8113,
      "bel": 8114,
      "eem": 8115,
      "Ġ>": 8116,
      "ĠAgency": 8117,
      "Ġexplo": 8118,
      "Ġevaluation": 8119,
      "ĠModern": 8120,
      "isconsin": 8121,
      "rus": 8122,
      "Ġconverted": 8123,
      "ĠSus": 8124,
      "IG": 8125,
      "vi": 8126,
      "iner": 8127,
      "Ġvictims": 8128,
      "sex": 8129,
      "aug": 8130,
      "kh": 8131,
      "normal": 8132,
      "Ġhazard": 8133,
      "Ġexpatriate": 8134,
      "Ġ150": 8135,
      "Ġinstructions": 8136,
      "Ġenl": 8137,
      "ques": 8138,
      "ĠVictoria": 8139,
      "ĠCape": 8140,
      "ĠConnect": 8141,
      "ĠPu": 8142,
      "ĠWik": 8143,
      "Ġblocks": 8144,
      "Ġessays": 8145,
      "Ġepid": 8146,
      "Ġsched": 8147,
      "Ġslaves": 8148,
      "oding": 8149,
      "Ġhole": 8150,
      "Ġcharged": 8151,
      "Ġnose": 8152,
      "ĠOrig": 8153,
      "ĠPolish": 8154,
      "ĠSold": 8155,
      "Ġknowing": 8156,
      "ĠBack": 8157,
      "Ġshore": 8158,
      "Ġremote": 8159,
      "iece": 8160,
      "avery": 8161,
      "2002": 8162,
      "ĠAsh": 8163,
      "Ġcenters": 8164,
      "Ġbreed": 8165,
      "Ġfold": 8166,
      "Ġgenus": 8167,
      "Ġtwelve": 8168,
      "ĠHun": 8169,
      "earing": 8170,
      "Ġdownload": 8171,
      "Int": 8172,
      "God": 8173,
      "Ġtiny": 8174,
      "Ġjump": 8175,
      "ĠCub": 8176,
      "iel": 8177,
      "ĠNon": 8178,
      "67": 8179,
      "adium": 8180,
      "Ġoldest": 8181,
      ".âĢĻ": 8182,
      "Ġfalling": 8183,
      "ĠDown": 8184,
      "ĠJean": 8185,
      "inds": 8186,
      "ĠOregon": 8187,
      "Ġfault": 8188,
      "Ġcontributed": 8189,
      "Ġcopyright": 8190,
      "Ġthorough": 8191,
      "ĠIV": 8192,
      "Ġmeters": 8193,
      "Ġpleased": 8194,
      "ĠWord": 8195,
      "wealth": 8196,
      "Ġdemonstrated": 8197,
      "itative": 8198,
      "osion": 8199,
      "Ġreader": 8200,
      "Ġmoves": 8201,
      "Ġindicated": 8202,
      "Ġcoastal": 8203,
      "Ġ34": 8204,
      "Ġhearts": 8205,
      "forcement": 8206,
      "Ġfulf": 8207,
      "ĠArgent": 8208,
      "Ġcommittee": 8209,
      "ĠBalt": 8210,
      "hedule": 8211,
      "ĠAP": 8212,
      "ĠNetherlands": 8213,
      "Ġmanagers": 8214,
      "Ġ1966": 8215,
      "oom": 8216,
      "Ġmice": 8217,
      "Ġsession": 8218,
      "Ġcolleagues": 8219,
      "scale": 8220,
      "quarters": 8221,
      "hav": 8222,
      "Ġimprovement": 8223,
      "esides": 8224,
      "Ġparliament": 8225,
      "Ġthereby": 8226,
      "Ġtexts": 8227,
      "Rec": 8228,
      "ĠDub": 8229,
      "esis": 8230,
      "ĠNov": 8231,
      "Ġcontamin": 8232,
      "Ġrefused": 8233,
      "Ġliterary": 8234,
      "bro": 8235,
      "Under": 8236,
      "Two": 8237,
      "Ġdipl": 8238,
      "ĠMic": 8239,
      "OL": 8240,
      "ĠTen": 8241,
      "Ġnecessarily": 8242,
      "ĠHong": 8243,
      "Ġfeat": 8244,
      "aylor": 8245,
      "Ġexped": 8246,
      "Ġpreparation": 8247,
      "present": 8248,
      "Ġbrothers": 8249,
      "ĠIslamic": 8250,
      "Ġrecover": 8251,
      "Ġdescent": 8252,
      "Ġsignificance": 8253,
      "iva": 8254,
      "Ġbreathing": 8255,
      "Ġcure": 8256,
      "ainst": 8257,
      "United": 8258,
      "Ġsheet": 8259,
      "Ġfunctional": 8260,
      "Ġpilot": 8261,
      "Par": 8262,
      "adian": 8263,
      "box": 8264,
      "Ġflying": 8265,
      "ĠKim": 8266,
      "usalem": 8267,
      "brew": 8268,
      "also": 8269,
      "cyclop": 8270,
      "Ġbranches": 8271,
      "Ġmaintaining": 8272,
      "ĠBeaut": 8273,
      "nia": 8274,
      "uris": 8275,
      "ĠâĢ¢": 8276,
      "Reg": 8277,
      "Ġreaching": 8278,
      "word": 8279,
      "Ġchrom": 8280,
      "Ġprohib": 8281,
      "tic": 8282,
      "Ġinnoc": 8283,
      "AF": 8284,
      "Ġsuit": 8285,
      "Ġcoffee": 8286,
      "Ġrivers": 8287,
      "unes": 8288,
      "ieval": 8289,
      "Ġmechanisms": 8290,
      "Ġemotions": 8291,
      "geon": 8292,
      "idance": 8293,
      "Ġaccommod": 8294,
      "Ġinformed": 8295,
      "Ġcompounds": 8296,
      "Ġwidespread": 8297,
      "ifferent": 8298,
      "ĠMountain": 8299,
      "Ġinher": 8300,
      "Ġhal": 8301,
      "irds": 8302,
      "ĠHo": 8303,
      "Ġexamine": 8304,
      "ĠPrem": 8305,
      "Ġmos": 8306,
      "Ġstead": 8307,
      "ĠArizona": 8308,
      "Ġlifestyle": 8309,
      "will": 8310,
      "Would": 8311,
      "ĠTake": 8312,
      "Ġbron": 8313,
      "nership": 8314,
      "Ġhoriz": 8315,
      "ĠRight": 8316,
      "outheast": 8317,
      "plant": 8318,
      "Ġcrick": 8319,
      "ĠMinnesota": 8320,
      "ĠXML": 8321,
      "Ġfix": 8322,
      "ĠBuddh": 8323,
      "SR": 8324,
      "umps": 8325,
      "Ġcareful": 8326,
      "Ġbeliefs": 8327,
      "Ġantibiot": 8328,
      "University": 8329,
      "Has": 8330,
      "cience": 8331,
      "Ġhabits": 8332,
      "Ġhurt": 8333,
      "Ġofficially": 8334,
      "Ġconsumers": 8335,
      "Ġislands": 8336,
      "Ġaccompan": 8337,
      "Ġclim": 8338,
      "Ġunderlying": 8339,
      "Ġarchae": 8340,
      "uther": 8341,
      "asm": 8342,
      "rooms": 8343,
      "ĠSav": 8344,
      "Ġguarant": 8345,
      "Ġcards": 8346,
      "Ġincident": 8347,
      "Ġgods": 8348,
      "Ġzero": 8349,
      "adron": 8350,
      "Ġcategories": 8351,
      "Ġoccas": 8352,
      "Ġtransp": 8353,
      "58": 8354,
      "ĠWould": 8355,
      "Ġwhatever": 8356,
      "Ġwed": 8357,
      "Ġprofit": 8358,
      "Ġpursu": 8359,
      "2001": 8360,
      "Ġ48": 8361,
      "thew": 8362,
      "Ġongoing": 8363,
      "Ġlights": 8364,
      "Ġserver": 8365,
      "esity": 8366,
      "Ġboost": 8367,
      "Ġhypothes": 8368,
      "ocated": 8369,
      "Ġusage": 8370,
      "ĠMaryland": 8371,
      "ĠWilson": 8372,
      "ĠPope": 8373,
      "Ġplus": 8374,
      "Ġspin": 8375,
      "ĠMexican": 8376,
      "Ġtrav": 8377,
      "aning": 8378,
      "Ġreactions": 8379,
      "ĠWalk": 8380,
      "Ġprotest": 8381,
      "ruit": 8382,
      "Once": 8383,
      "brid": 8384,
      "di": 8385,
      "91": 8386,
      "Ġbid": 8387,
      "ĠNic": 8388,
      "Ġrocks": 8389,
      "ĠBridge": 8390,
      "inter": 8391,
      "Ġdriver": 8392,
      "Ġdiox": 8393,
      "hythm": 8394,
      "oga": 8395,
      "Ġcomments": 8396,
      "Ġprovin": 8397,
      "Ġperforming": 8398,
      "94": 8399,
      "erto": 8400,
      "Ġdriven": 8401,
      "Ġ1962": 8402,
      "England": 8403,
      "Ġsaved": 8404,
      "Ġdates": 8405,
      "ĠGallery": 8406,
      "olester": 8407,
      "itely": 8408,
      "Ġgram": 8409,
      "Ġheavily": 8410,
      "Ġvulnerable": 8411,
      "Ġobjective": 8412,
      "Ġfishing": 8413,
      "Ġnan": 8414,
      "Ġpsychological": 8415,
      "ĠOntario": 8416,
      "agen": 8417,
      "issipp": 8418,
      "Ġboat": 8419,
      "Ġbare": 8420,
      "Ġrestaur": 8421,
      "Ã¢": 8422,
      "Ġfinish": 8423,
      "Ġreviews": 8424,
      "Ġplenty": 8425,
      "Ġinteractions": 8426,
      "Ġske": 8427,
      "Ġhat": 8428,
      "ĠRay": 8429,
      "ĠNever": 8430,
      "Ġcommunicate": 8431,
      "fortunately": 8432,
      "Ġhem": 8433,
      "ĠSunday": 8434,
      "Ġvice": 8435,
      "ĠRen": 8436,
      "Ġparticipated": 8437,
      "Ġpresents": 8438,
      "ortion": 8439,
      "Ġwindows": 8440,
      "aration": 8441,
      "Figure": 8442,
      "Gl": 8443,
      "ĠLin": 8444,
      "never": 8445,
      "ĠFollowing": 8446,
      "'.": 8447,
      "Ġclar": 8448,
      "rank": 8449,
      "cific": 8450,
      "68": 8451,
      "ĠDu": 8452,
      "ĠHawai": 8453,
      "Note": 8454,
      "Ġrevenge": 8455,
      "Ġflour": 8456,
      "had": 8457,
      "Upon": 8458,
      "Ġcoverage": 8459,
      "eg": 8460,
      "amine": 8461,
      "Ġprinted": 8462,
      "istical": 8463,
      "ĠNap": 8464,
      "yo": 8465,
      "Ġroughly": 8466,
      "oil": 8467,
      "ĠAdditionally": 8468,
      "Ġoutbre": 8469,
      "Ġfol": 8470,
      "Ġhydrogen": 8471,
      "Ġmathematics": 8472,
      "ĠChap": 8473,
      "Just": 8474,
      "Ġprogramme": 8475,
      "53": 8476,
      "Ġ1963": 8477,
      "Ġconsidering": 8478,
      "ĠMcC": 8479,
      "dam": 8480,
      "Ġsor": 8481,
      "akh": 8482,
      "Ġdemonstrate": 8483,
      "ĠSweden": 8484,
      "thod": 8485,
      "ĠTai": 8486,
      "agraph": 8487,
      "Take": 8488,
      "ĠShip": 8489,
      "arest": 8490,
      "rithee": 8491,
      "ographical": 8492,
      "OC": 8493,
      "Ġvideos": 8494,
      "Ġwings": 8495,
      "Ġorganisms": 8496,
      "Ġpresentation": 8497,
      "ensed": 8498,
      "ailed": 8499,
      "ĠKansas": 8500,
      "Ġtranslation": 8501,
      "inth": 8502,
      "ĠGame": 8503,
      "Ġphysics": 8504,
      "Ġmixt": 8505,
      "ĠAk": 8506,
      "Ġamend": 8507,
      "Ġintegrated": 8508,
      "ĠWisconsin": 8509,
      "ĠRose": 8510,
      "ĠYouth": 8511,
      "Ġfacing": 8512,
      "Ġvolcan": 8513,
      "Ġpreval": 8514,
      "Ġfever": 8515,
      "Ġpharm": 8516,
      "Ġencouraged": 8517,
      "Ġdent": 8518,
      "Ġwat": 8519,
      "Ġholid": 8520,
      "Ġpresently": 8521,
      "Ġgenerations": 8522,
      "including": 8523,
      "ĠCancer": 8524,
      "57": 8525,
      "Ġanger": 8526,
      "Ġgraduated": 8527,
      "ĠConfed": 8528,
      "Ġpartnership": 8529,
      "Ġcryst": 8530,
      "52": 8531,
      "Every": 8532,
      "opl": 8533,
      "iture": 8534,
      "Ġaccessible": 8535,
      "ghan": 8536,
      "Ġspaces": 8537,
      "Ġobservations": 8538,
      "Ġspons": 8539,
      "Ġtea": 8540,
      "ĠBall": 8541,
      "new": 8542,
      "elfare": 8543,
      "Ġclubs": 8544,
      "teenth": 8545,
      "Ġasking": 8546,
      "ĠHard": 8547,
      "Ġrecon": 8548,
      "uracy": 8549,
      "Ġpanel": 8550,
      "Ġsemi": 8551,
      "ĠDor": 8552,
      "agan": 8553,
      "ĠSant": 8554,
      "ĠMess": 8555,
      "Ġmarks": 8556,
      "trans": 8557,
      "Ġrarely": 8558,
      "esar": 8559,
      "ĠBatt": 8560,
      "ĠExec": 8561,
      "zech": 8562,
      "ĠEyes": 8563,
      "apse": 8564,
      "Ġuniversal": 8565,
      "Ġtight": 8566,
      "ĠBroad": 8567,
      "ĠAdam": 8568,
      "omed": 8569,
      "Ġadvis": 8570,
      "ĠSanta": 8571,
      "Ġstronger": 8572,
      "Ġpin": 8573,
      "ĠStock": 8574,
      "Ġfemales": 8575,
      "ĠNorm": 8576,
      "Ġmyth": 8577,
      "ĠMS": 8578,
      "ĠRepublican": 8579,
      "hma": 8580,
      "rifice": 8581,
      "Ġagents": 8582,
      "Ġrepresentative": 8583,
      "olesterol": 8584,
      "track": 8585,
      "ĠBru": 8586,
      "Ġcompare": 8587,
      "Ġcircle": 8588,
      "Ġphoto": 8589,
      "encing": 8590,
      "Ġpy": 8591,
      "Ġbreeding": 8592,
      "Bel": 8593,
      "Ġtheore": 8594,
      "ĠJon": 8595,
      "ĠShow": 8596,
      "Ġcandidates": 8597,
      "Sim": 8598,
      "Ġdefeat": 8599,
      "log": 8600,
      "ĠBan": 8601,
      "bec": 8602,
      "ĠPrime": 8603,
      "ĠFriends": 8604,
      "ervative": 8605,
      "Ġstopped": 8606,
      "theless": 8607,
      "pson": 8608,
      "Ġ1948": 8609,
      "Ġlosses": 8610,
      "Ġdropped": 8611,
      "Ant": 8612,
      "rolled": 8613,
      "ĠAM": 8614,
      "Ġcontrols": 8615,
      "herent": 8616,
      "Ġpush": 8617,
      "ĠBBC": 8618,
      "Ġlayers": 8619,
      "Ġfairly": 8620,
      "urst": 8621,
      "Ġdefect": 8622,
      "ika": 8623,
      "Tra": 8624,
      "ĠPolice": 8625,
      "Ġkilomet": 8626,
      "orney": 8627,
      "Ġinsulin": 8628,
      "Ġmunicipal": 8629,
      "Ġhosp": 8630,
      "Ġsatellite": 8631,
      "Ġvo": 8632,
      "Ġshapes": 8633,
      "Ġguns": 8634,
      "ĠCost": 8635,
      "Ġbegun": 8636,
      "Ġplane": 8637,
      "Ġdesignated": 8638,
      "ĠTheatre": 8639,
      "Ġestimates": 8640,
      "Ġregarded": 8641,
      "ĠLook": 8642,
      "asures": 8643,
      "Such": 8644,
      "Ġassault": 8645,
      "51": 8646,
      "eting": 8647,
      "ĠEffect": 8648,
      "Ġbutter": 8649,
      "Ġguilty": 8650,
      "Ġreturning": 8651,
      "Ġtrick": 8652,
      "Ġaqu": 8653,
      "ĠStory": 8654,
      "ĠQuest": 8655,
      "run": 8656,
      "Ġdispl": 8657,
      "Rel": 8658,
      "ĠPage": 8659,
      "Ġconsumer": 8660,
      "Out": 8661,
      "64": 8662,
      "Play": 8663,
      "Bar": 8664,
      "ĠStone": 8665,
      "ĠChamber": 8666,
      "2018": 8667,
      "pected": 8668,
      "Ġ1943": 8669,
      "Ġspoken": 8670,
      "Ġcas": 8671,
      "ĠHu": 8672,
      "Ġresid": 8673,
      "Ġsubstances": 8674,
      "stic": 8675,
      "lik": 8676,
      "ĠAmaz": 8677,
      "Ġunp": 8678,
      "uese": 8679,
      "Ġmales": 8680,
      "Ġinjured": 8681,
      "Ġintellectual": 8682,
      "Ġusual": 8683,
      "agram": 8684,
      "Ġforgot": 8685,
      "cover": 8686,
      "Ġfeedback": 8687,
      "Ġconstantly": 8688,
      "Ġdiagnosed": 8689,
      "Ġindustries": 8690,
      "ĠIndiana": 8691,
      "Ġpoetry": 8692,
      "Ġdish": 8693,
      "Ġhyper": 8694,
      "Ġwasn": 8695,
      "Ġpersist": 8696,
      "quis": 8697,
      "Ġattempted": 8698,
      "mouth": 8699,
      "Ġneur": 8700,
      "Ġmaps": 8701,
      "Ġconfident": 8702,
      "Å¡": 8703,
      "Ġimplemented": 8704,
      "ĠAffairs": 8705,
      "issippi": 8706,
      "ĠBad": 8707,
      "mony": 8708,
      "Ġdress": 8709,
      "Ġfarming": 8710,
      "Ġrepresenting": 8711,
      "ez": 8712,
      "54": 8713,
      "athan": 8714,
      "ĠProdu": 8715,
      "Ġlabour": 8716,
      "ervous": 8717,
      "2019": 8718,
      "mm": 8719,
      "sts": 8720,
      "Ġrelax": 8721,
      "ealous": 8722,
      "ĠEnem": 8723,
      "Ġlicense": 8724,
      ".|": 8725,
      "door": 8726,
      "Ġhockey": 8727,
      "ĠGre": 8728,
      "Ġtick": 8729,
      "otype": 8730,
      "Ã¡n": 8731,
      "ĠBrig": 8732,
      "ĠOrd": 8733,
      "âĢĺ": 8734,
      "essions": 8735,
      "General": 8736,
      "Ġwars": 8737,
      "Ġempty": 8738,
      "earchers": 8739,
      "ĠTok": 8740,
      "ĠRab": 8741,
      "hedral": 8742,
      "Ġcopper": 8743,
      "bean": 8744,
      "vision": 8745,
      "Ġshortly": 8746,
      "Ġtort": 8747,
      "Ġtub": 8748,
      "Ġstores": 8749,
      "iratory": 8750,
      "orship": 8751,
      "ĠDom": 8752,
      "Ġsurve": 8753,
      "Ġfilter": 8754,
      "ĠContin": 8755,
      "Ġinhabitants": 8756,
      "Ġcharacterized": 8757,
      "Ġcattle": 8758,
      "aki": 8759,
      "Ġdelight": 8760,
      "Ġkeeps": 8761,
      "Ġnarrative": 8762,
      "Ġfocuses": 8763,
      "urse": 8764,
      "sa": 8765,
      "Ġexperimental": 8766,
      "iga": 8767,
      "Ġmechanical": 8768,
      "aughters": 8769,
      "Ġconversion": 8770,
      "Ġestablishment": 8771,
      "ĠWinter": 8772,
      "foot": 8773,
      "Ġargued": 8774,
      "adow": 8775,
      "Ġhide": 8776,
      "http": 8777,
      "Ġvisitors": 8778,
      "IF": 8779,
      "Ġprofile": 8780,
      "Ġrepresentation": 8781,
      "athered": 8782,
      "Ġstreets": 8783,
      "olitan": 8784,
      "Ġstuff": 8785,
      "Ġcompens": 8786,
      "TP": 8787,
      "Ġunusual": 8788,
      "itivity": 8789,
      "ĠHarvard": 8790,
      "Ġdealing": 8791,
      "Ġgradually": 8792,
      "ĠComple": 8793,
      "ĠRailway": 8794,
      "Ġmusicians": 8795,
      "Ġangry": 8796,
      "miral": 8797,
      "anna": 8798,
      "Ġearliest": 8799,
      "ouds": 8800,
      "Ġtrend": 8801,
      "ĠShort": 8802,
      "Ġcolonial": 8803,
      "Ġglucose": 8804,
      "Ġstimul": 8805,
      "South": 8806,
      "rait": 8807,
      "inus": 8808,
      "orse": 8809,
      "Ġthine": 8810,
      "ĠRepresentatives": 8811,
      "ĠVietnam": 8812,
      "Ġcovering": 8813,
      "chester": 8814,
      "ĠWindows": 8815,
      "Ġconfirm": 8816,
      "HS": 8817,
      "rah": 8818,
      "iop": 8819,
      "Ġimagine": 8820,
      "estab": 8821,
      "Ġtender": 8822,
      "ĠSwedish": 8823,
      "Ġnerve": 8824,
      "Ġ1939": 8825,
      "British": 8826,
      "icing": 8827,
      "ĠDomin": 8828,
      "ĠFortune": 8829,
      "ĠJacob": 8830,
      "oa": 8831,
      "ĠBand": 8832,
      "illery": 8833,
      "Ġwheel": 8834,
      "Ġroads": 8835,
      "Ġloan": 8836,
      "otal": 8837,
      "Ġexception": 8838,
      "Ġchose": 8839,
      "Ġexercises": 8840,
      "ridges": 8841,
      "ĠPit": 8842,
      "ĠRef": 8843,
      "Look": 8844,
      "ĠPolicy": 8845,
      "ĠKnight": 8846,
      "Ġton": 8847,
      "Ġdys": 8848,
      "Ġentrance": 8849,
      "About": 8850,
      "ĠCru": 8851,
      "ĠAccess": 8852,
      "ĠHorse": 8853,
      "ĠMult": 8854,
      "merce": 8855,
      "etics": 8856,
      "asses": 8857,
      "Ġtitles": 8858,
      "Ġpandemic": 8859,
      "ĠAud": 8860,
      "ĠBuilding": 8861,
      "ĠWeek": 8862,
      "Ġmarch": 8863,
      "Ġcarb": 8864,
      "Ġpreced": 8865,
      "Ġmountains": 8866,
      "Ġepisodes": 8867,
      "Ġmerely": 8868,
      "Ġfunded": 8869,
      "Ġyards": 8870,
      "ennis": 8871,
      "Ġcriteria": 8872,
      "orig": 8873,
      "icular": 8874,
      "archy": 8875,
      "borne": 8876,
      "Ġfavorite": 8877,
      "Ġov": 8878,
      "Ġearthqu": 8879,
      "mun": 8880,
      "Ġdifficulties": 8881,
      "ĠDavis": 8882,
      "Ġthreats": 8883,
      "Ġcontributions": 8884,
      "rency": 8885,
      "Ġwrites": 8886,
      "Ġfounder": 8887,
      "ĠSyd": 8888,
      "icut": 8889,
      "ĠMas": 8890,
      "Ġdesert": 8891,
      "Ġorgans": 8892,
      "olving": 8893,
      "Ġdefine": 8894,
      "Ġsettings": 8895,
      "ĠPoint": 8896,
      "Ġruled": 8897,
      "Ġassembly": 8898,
      "Ġchurches": 8899,
      "ensis": 8900,
      "orus": 8901,
      "Ġjudgment": 8902,
      "Ġwounded": 8903,
      "Ġcalcium": 8904,
      "Ġmerc": 8905,
      "Ġexamination": 8906,
      "Ġtropical": 8907,
      "ĠMach": 8908,
      "Ġtissues": 8909,
      "Ġmart": 8910,
      "Ġuncle": 8911,
      "Ġash": 8912,
      "ultane": 8913,
      "Ġuniform": 8914,
      "ibraries": 8915,
      "Ġblessed": 8916,
      "ĠSister": 8917,
      "Ġsteam": 8918,
      "made": 8919,
      "Ġpiano": 8920,
      "Ġpreventing": 8921,
      "ĠLast": 8922,
      "Ġeducated": 8923,
      "Ġglory": 8924,
      "Ð½": 8925,
      "Ġthereof": 8926,
      "arents": 8927,
      "Ġwinners": 8928,
      "Ġreliable": 8929,
      "ĠTable": 8930,
      "Ġstones": 8931,
      "Ġracial": 8932,
      "Ġwithdraw": 8933,
      "Ġmodified": 8934,
      "Ġaims": 8935,
      "Ġadvantages": 8936,
      "Ġovercome": 8937,
      "omatic": 8938,
      "Ġreturns": 8939,
      "Ġtut": 8940,
      "ĠCome": 8941,
      "Ġdioxide": 8942,
      "Pray": 8943,
      "ÑĢ": 8944,
      "Ġsmoking": 8945,
      "ĠIron": 8946,
      "Ġherself": 8947,
      "Ġbehaviors": 8948,
      "raid": 8949,
      "Ġchallenging": 8950,
      "Ġmetabol": 8951,
      "upon": 8952,
      "Ġconsideration": 8953,
      "issance": 8954,
      "Ġdemands": 8955,
      "Ġviolent": 8956,
      "Har": 8957,
      "Ġequally": 8958,
      "Ġdrivers": 8959,
      "western": 8960,
      "Ġcash": 8961,
      "ĠFurthermore": 8962,
      "Ġaccompanied": 8963,
      "PR": 8964,
      "Ġawards": 8965,
      "Dis": 8966,
      "erb": 8967,
      "Ġrely": 8968,
      "Ah": 8969,
      "ĠHay": 8970,
      "Ġfriendly": 8971,
      "ĠMilitary": 8972,
      "eling": 8973,
      "Ġnest": 8974,
      "istant": 8975,
      "Ġoh": 8976,
      "Ġwarning": 8977,
      "ĠKey": 8978,
      "Ġfiction": 8979,
      "ifer": 8980,
      "mers": 8981,
      "raham": 8982,
      "Ġshed": 8983,
      "Ġremoval": 8984,
      "Ġrecommendations": 8985,
      "ĠHan": 8986,
      "Ġfaces": 8987,
      "Ġscorn": 8988,
      "ĠResources": 8989,
      "Ġcow": 8990,
      "ĠRegiment": 8991,
      "oz": 8992,
      "Ġguidance": 8993,
      "Ġsubstantial": 8994,
      "ili": 8995,
      "ĠRegister": 8996,
      "Mon": 8997,
      "ĠChapter": 8998,
      "Ġevening": 8999,
      "Ġcourts": 9000,
      "Ġ42": 9001,
      "Ġphosph": 9002,
      "Act": 9003,
      "ĠCow": 9004,
      "ĠJoe": 9005,
      "Ġfears": 9006,
      "Ġrom": 9007,
      "heimer": 9008,
      "Ġsitting": 9009,
      "ĠPrincess": 9010,
      "Great": 9011,
      "har": 9012,
      "1999": 9013,
      "Ġdollars": 9014,
      "Ġselves": 9015,
      "Ġconversation": 9016,
      "Ġvotes": 9017,
      "Ġelectro": 9018,
      "ĠArticle": 9019,
      "\"|": 9020,
      "rity": 9021,
      "Ġscientist": 9022,
      "Ġpasses": 9023,
      "74": 9024,
      "Ġpale": 9025,
      "Ġgrounds": 9026,
      "ĠQueens": 9027,
      "ji": 9028,
      "ĠClimate": 9029,
      "ĠPrinces": 9030,
      "hus": 9031,
      "Ġturb": 9032,
      "Ġlaugh": 9033,
      "Ġmeal": 9034,
      "London": 9035,
      "jects": 9036,
      "Ġoccupied": 9037,
      "ĠChange": 9038,
      "Ġroutine": 9039,
      "ĠTa": 9040,
      "ĠReal": 9041,
      "ĠDoctor": 9042,
      "ĠOrganization": 9043,
      "CE": 9044,
      "ĠLewis": 9045,
      "Ġsale": 9046,
      "Ġangle": 9047,
      "Ġmanip": 9048,
      "Ġphysician": 9049,
      "ĠNep": 9050,
      "Ġrice": 9051,
      "Ġende": 9052,
      "Ġdose": 9053,
      "Ġtower": 9054,
      "abulary": 9055,
      "enc": 9056,
      "Year": 9057,
      "pling": 9058,
      "Ġpronoun": 9059,
      "Ġreduces": 9060,
      "Ġvariables": 9061,
      "Ġmolecular": 9062,
      "Ġpregnant": 9063,
      "Ġlists": 9064,
      "ĠJerusalem": 9065,
      "about": 9066,
      "engers": 9067,
      "ordan": 9068,
      "ĠAz": 9069,
      "rix": 9070,
      "Ġ1946": 9071,
      "eman": 9072,
      "Ġclothing": 9073,
      "Ġschedule": 9074,
      "Ġmood": 9075,
      "Ġconvey": 9076,
      "71": 9077,
      "ĠRaj": 9078,
      "Sub": 9079,
      "ĠDC": 9080,
      "Ġpeoples": 9081,
      "Ġwinner": 9082,
      "Ġseparated": 9083,
      "oca": 9084,
      "ĠFact": 9085,
      "Ġsees": 9086,
      "uels": 9087,
      "Ġvoltage": 9088,
      "ĠPict": 9089,
      "Ġstruck": 9090,
      "pers": 9091,
      "ĠAlb": 9092,
      "eren": 9093,
      "William": 9094,
      "Ġchamber": 9095,
      "Ġgrave": 9096,
      "Ġengines": 9097,
      "ĠAnth": 9098,
      "ĠGolden": 9099,
      "chief": 9100,
      "Ġclothes": 9101,
      "ildren": 9102,
      "ocket": 9103,
      "Ġfabric": 9104,
      "ĠTurn": 9105,
      "ĠPlease": 9106,
      "MP": 9107,
      "Ġflows": 9108,
      "ĠKir": 9109,
      "Ġextension": 9110,
      "Ġformerly": 9111,
      "sters": 9112,
      "igue": 9113,
      "ĠCorporation": 9114,
      "Ġtack": 9115,
      "Ġgrid": 9116,
      "ĠSydney": 9117,
      "father": 9118,
      "Ã¸": 9119,
      "Ġflesh": 9120,
      "Ġordinary": 9121,
      "ĠMP": 9122,
      "criptions": 9123,
      "ranean": 9124,
      "ĠPerson": 9125,
      "Ġcampus": 9126,
      "ocial": 9127,
      "Ġcensus": 9128,
      "elle": 9129,
      "DS": 9130,
      "Ġ1961": 9131,
      "Lear": 9132,
      "Ġgreenhouse": 9133,
      "Ġfolk": 9134,
      "Ġconfig": 9135,
      "enny": 9136,
      "otion": 9137,
      "Ġending": 9138,
      "Ġexhibition": 9139,
      "Ġtom": 9140,
      "wart": 9141,
      "ĠBarb": 9142,
      "Ġoffices": 9143,
      "Ġparish": 9144,
      "Ġsubstit": 9145,
      "Ġdiameter": 9146,
      "ĠLt": 9147,
      "idity": 9148,
      "Ġthreatened": 9149,
      "Ġaimed": 9150,
      "ĠHur": 9151,
      "Ġmercy": 9152,
      "Ġaccuracy": 9153,
      "aze": 9154,
      "Ġpursue": 9155,
      "ĠSud": 9156,
      "Ġeveryday": 9157,
      "ĠMaria": 9158,
      "Ġourselves": 9159,
      "Ġdecay": 9160,
      "bled": 9161,
      "Ġtherap": 9162,
      "Ġentitled": 9163,
      "Ġswear": 9164,
      "Ġfled": 9165,
      "Ġexamined": 9166,
      "IDS": 9167,
      "pen": 9168,
      "Ġfinger": 9169,
      "Ġchick": 9170,
      "ĠLeon": 9171,
      "Ġweakness": 9172,
      "ritis": 9173,
      "Ġreveal": 9174,
      "yers": 9175,
      "orters": 9176,
      "Ġminds": 9177,
      "olas": 9178,
      "Ġmoisture": 9179,
      "olves": 9180,
      "Ġpoem": 9181,
      "Ġexplanation": 9182,
      "stery": 9183,
      "ĠObs": 9184,
      "Ġsucceeded": 9185,
      "ĠAction": 9186,
      "Each": 9187,
      "83": 9188,
      "arer": 9189,
      "Ġclock": 9190,
      "itarian": 9191,
      "Ġnay": 9192,
      "Sec": 9193,
      "ĠMississippi": 9194,
      "Ġpropag": 9195,
      "lyn": 9196,
      "regation": 9197,
      "Rem": 9198,
      "Ġcompound": 9199,
      "Ġphotos": 9200,
      "Ġexcessive": 9201,
      "Ġestimate": 9202,
      "istance": 9203,
      "hyd": 9204,
      "ĠFacebook": 9205,
      "Ġregistered": 9206,
      "Ġbiology": 9207,
      "ĠLes": 9208,
      "Ġ1947": 9209,
      "ĠPhilippines": 9210,
      "Ġobservation": 9211,
      "ĠNorway": 9212,
      "your": 9213,
      "RC": 9214,
      "Madam": 9215,
      "73": 9216,
      "section": 9217,
      "cribe": 9218,
      "Ġanalys": 9219,
      "ĠTan": 9220,
      "ĠBos": 9221,
      "Ġsurfaces": 9222,
      "Ġproven": 9223,
      "ĠMarine": 9224,
      "ĠPhilip": 9225,
      "Ġda": 9226,
      "erick": 9227,
      "Mil": 9228,
      "Ġerect": 9229,
      "Ġblow": 9230,
      "ibliography": 9231,
      "Ġcopies": 9232,
      "haust": 9233,
      "airy": 9234,
      "ĠGrace": 9235,
      "Ġcontrary": 9236,
      "Ġcontribution": 9237,
      "Ġcharges": 9238,
      "Ġpaintings": 9239,
      "ĠHal": 9240,
      "Ġdetection": 9241,
      "essee": 9242,
      "Ġfleet": 9243,
      "Ġmic": 9244,
      "Ġvariation": 9245,
      "Ġstake": 9246,
      "ĠBody": 9247,
      "West": 9248,
      "Ġhidden": 9249,
      "61": 9250,
      "Ġpunishment": 9251,
      "aping": 9252,
      "Ġ1958": 9253,
      "ĠForeign": 9254,
      "Ġparas": 9255,
      "Ġinterior": 9256,
      "Ġmessages": 9257,
      "Ġminerals": 9258,
      "Ġ1918": 9259,
      "Ġdependent": 9260,
      "ĠCrit": 9261,
      "Ġcholesterol": 9262,
      "Ġprosper": 9263,
      "ÑĤ": 9264,
      "ĠIss": 9265,
      "olds": 9266,
      "fts": 9267,
      "quest": 9268,
      "Ġtract": 9269,
      "ĠArea": 9270,
      "ĠHart": 9271,
      "Ġviewed": 9272,
      "Ġ1956": 9273,
      "ĠProtection": 9274,
      "Ġnervous": 9275,
      "Ġcourage": 9276,
      "wegian": 9277,
      "Ġouter": 9278,
      "Ġdisaster": 9279,
      "Ġtheories": 9280,
      "ĠMoreover": 9281,
      "],": 9282,
      "olland": 9283,
      "vernment": 9284,
      "Writ": 9285,
      "df": 9286,
      "Ġgraduate": 9287,
[...]
